{
  "version": "1.0",
  "truncation": null,
  "padding": null,
  "added_tokens": [],
  "normalizer": {
    "type": "Lowercase"
  },
  "pre_tokenizer": {
    "type": "ByteLevel",
    "add_prefix_space": true,
    "trim_offsets": true,
    "use_regex": true
  },
  "post_processor": null,
  "decoder": {
    "type": "ByteLevel",
    "add_prefix_space": true,
    "trim_offsets": true,
    "use_regex": true
  },
  "model": {
    "type": "BPE",
    "dropout": null,
    "unk_token": null,
    "continuing_subword_prefix": null,
    "end_of_word_suffix": null,
    "fuse_unk": false,
    "byte_fallback": false,
    "ignore_merges": false,
    "vocab": {
      "!": 0,
      "\"": 1,
      "#": 2,
      "$": 3,
      "%": 4,
      "&": 5,
      "'": 6,
      "(": 7,
      ")": 8,
      "*": 9,
      "+": 10,
      ",": 11,
      "-": 12,
      ".": 13,
      "/": 14,
      "0": 15,
      "1": 16,
      "2": 17,
      "3": 18,
      "4": 19,
      "5": 20,
      "6": 21,
      "7": 22,
      "8": 23,
      "9": 24,
      ":": 25,
      ";": 26,
      "<": 27,
      "=": 28,
      ">": 29,
      "?": 30,
      "@": 31,
      "A": 32,
      "B": 33,
      "C": 34,
      "D": 35,
      "E": 36,
      "F": 37,
      "G": 38,
      "H": 39,
      "I": 40,
      "J": 41,
      "K": 42,
      "L": 43,
      "M": 44,
      "N": 45,
      "O": 46,
      "P": 47,
      "Q": 48,
      "R": 49,
      "S": 50,
      "T": 51,
      "U": 52,
      "V": 53,
      "W": 54,
      "X": 55,
      "Y": 56,
      "Z": 57,
      "[": 58,
      "\\": 59,
      "]": 60,
      "^": 61,
      "_": 62,
      "`": 63,
      "a": 64,
      "b": 65,
      "c": 66,
      "d": 67,
      "e": 68,
      "f": 69,
      "g": 70,
      "h": 71,
      "i": 72,
      "j": 73,
      "k": 74,
      "l": 75,
      "m": 76,
      "n": 77,
      "o": 78,
      "p": 79,
      "q": 80,
      "r": 81,
      "s": 82,
      "t": 83,
      "u": 84,
      "v": 85,
      "w": 86,
      "x": 87,
      "y": 88,
      "z": 89,
      "{": 90,
      "|": 91,
      "}": 92,
      "~": 93,
      "¡": 94,
      "¢": 95,
      "£": 96,
      "¤": 97,
      "¥": 98,
      "¦": 99,
      "§": 100,
      "¨": 101,
      "©": 102,
      "ª": 103,
      "«": 104,
      "¬": 105,
      "®": 106,
      "¯": 107,
      "°": 108,
      "±": 109,
      "²": 110,
      "³": 111,
      "´": 112,
      "µ": 113,
      "¶": 114,
      "·": 115,
      "¸": 116,
      "¹": 117,
      "º": 118,
      "»": 119,
      "¼": 120,
      "½": 121,
      "¾": 122,
      "¿": 123,
      "À": 124,
      "Á": 125,
      "Â": 126,
      "Ã": 127,
      "Ä": 128,
      "Å": 129,
      "Æ": 130,
      "Ç": 131,
      "È": 132,
      "É": 133,
      "Ê": 134,
      "Ë": 135,
      "Ì": 136,
      "Í": 137,
      "Î": 138,
      "Ï": 139,
      "Ð": 140,
      "Ñ": 141,
      "Ò": 142,
      "Ó": 143,
      "Ô": 144,
      "Õ": 145,
      "Ö": 146,
      "×": 147,
      "Ø": 148,
      "Ù": 149,
      "Ú": 150,
      "Û": 151,
      "Ü": 152,
      "Ý": 153,
      "Þ": 154,
      "ß": 155,
      "à": 156,
      "á": 157,
      "â": 158,
      "ã": 159,
      "ä": 160,
      "å": 161,
      "æ": 162,
      "ç": 163,
      "è": 164,
      "é": 165,
      "ê": 166,
      "ë": 167,
      "ì": 168,
      "í": 169,
      "î": 170,
      "ï": 171,
      "ð": 172,
      "ñ": 173,
      "ò": 174,
      "ó": 175,
      "ô": 176,
      "õ": 177,
      "ö": 178,
      "÷": 179,
      "ø": 180,
      "ù": 181,
      "ú": 182,
      "û": 183,
      "ü": 184,
      "ý": 185,
      "þ": 186,
      "ÿ": 187,
      "Ā": 188,
      "ā": 189,
      "Ă": 190,
      "ă": 191,
      "Ą": 192,
      "ą": 193,
      "Ć": 194,
      "ć": 195,
      "Ĉ": 196,
      "ĉ": 197,
      "Ċ": 198,
      "ċ": 199,
      "Č": 200,
      "č": 201,
      "Ď": 202,
      "ď": 203,
      "Đ": 204,
      "đ": 205,
      "Ē": 206,
      "ē": 207,
      "Ĕ": 208,
      "ĕ": 209,
      "Ė": 210,
      "ė": 211,
      "Ę": 212,
      "ę": 213,
      "Ě": 214,
      "ě": 215,
      "Ĝ": 216,
      "ĝ": 217,
      "Ğ": 218,
      "ğ": 219,
      "Ġ": 220,
      "ġ": 221,
      "Ģ": 222,
      "ģ": 223,
      "Ĥ": 224,
      "ĥ": 225,
      "Ħ": 226,
      "ħ": 227,
      "Ĩ": 228,
      "ĩ": 229,
      "Ī": 230,
      "ī": 231,
      "Ĭ": 232,
      "ĭ": 233,
      "Į": 234,
      "į": 235,
      "İ": 236,
      "ı": 237,
      "Ĳ": 238,
      "ĳ": 239,
      "Ĵ": 240,
      "ĵ": 241,
      "Ķ": 242,
      "ķ": 243,
      "ĸ": 244,
      "Ĺ": 245,
      "ĺ": 246,
      "Ļ": 247,
      "ļ": 248,
      "Ľ": 249,
      "ľ": 250,
      "Ŀ": 251,
      "ŀ": 252,
      "Ł": 253,
      "ł": 254,
      "Ń": 255,
      "Ġt": 256,
      "Ġa": 257,
      "he": 258,
      "in": 259,
      "Ġthe": 260,
      "re": 261,
      "Ġo": 262,
      "Ġs": 263,
      "er": 264,
      "Ġc": 265,
      "on": 266,
      "at": 267,
      "Ġw": 268,
      "en": 269,
      "Ġp": 270,
      "Ġb": 271,
      "is": 272,
      "es": 273,
      "it": 274,
      "nd": 275,
      "Ġf": 276,
      "or": 277,
      "Ġm": 278,
      "Ġin": 279,
      "al": 280,
      "ed": 281,
      "Ġof": 282,
      "an": 283,
      "ing": 284,
      "Ġd": 285,
      "ou": 286,
      "ar": 287,
      "Ġto": 288,
      "Ġand": 289,
      "ic": 290,
      "ion": 291,
      "Ġh": 292,
      "le": 293,
      "Ġth": 294,
      "ro": 295,
      "as": 296,
      "Ġe": 297,
      "Ġn": 298,
      "ent": 299,
      "Ġl": 300,
      "Ġre": 301,
      "il": 302,
      "ct": 303,
      "Ġg": 304,
      "ve": 305,
      "om": 306,
      "us": 307,
      "Ġbe": 308,
      "âĢ": 309,
      "Ġis": 310,
      "ly": 311,
      "ol": 312,
      "st": 313,
      "im": 314,
      "id": 315,
      "Ġst": 316,
      "ation": 317,
      "ut": 318,
      "ot": 319,
      "ra": 320,
      "Ġfor": 321,
      "et": 322,
      "ce": 323,
      "Ġon": 324,
      "ur": 325,
      "ow": 326,
      "ch": 327,
      "Ġy": 328,
      "Ġthat": 329,
      "ig": 330,
      "ver": 331,
      "se": 332,
      "ir": 333,
      "Ġas": 334,
      "Ġit": 335,
      "ul": 336,
      "Ġhe": 337,
      "Ġwh": 338,
      "ay": 339,
      "Ġan": 340,
      "am": 341,
      "Ġcon": 342,
      "Ġpro": 343,
      "Ġal": 344,
      "ith": 345,
      "ad": 346,
      "if": 347,
      "un": 348,
      "Ġwe": 349,
      "Ġare": 350,
      "Ġyou": 351,
      "Ġwith": 352,
      "Ġor": 353,
      "Ġde": 354,
      "her": 355,
      "ter": 356,
      "od": 357,
      "Ġ(": 358,
      "Ġ1": 359,
      "ge": 360,
      "th": 361,
      "Ġv": 362,
      "Ġch": 363,
      "el": 364,
      "op": 365,
      "Ġex": 366,
      "ment": 367,
      "Ġcom": 368,
      "ist": 369,
      "ill": 370,
      "Ġha": 371,
      "Ġr": 372,
      "ate": 373,
      "ers": 374,
      "ess": 375,
      "ies": 376,
      "Ġmo": 377,
      "Ġsu": 378,
      "âĢĻ": 379,
      "Ġse": 380,
      "res": 381,
      "Ġat": 382,
      "Ġthis": 383,
      "ld": 384,
      "Ġne": 385,
      "ab": 386,
      "rom": 387,
      "Ġk": 388,
      "Ġby": 389,
      "ity": 390,
      "est": 391,
      "ac": 392,
      "ive": 393,
      "um": 394,
      "qu": 395,
      "Ġwas": 396,
      "iv": 397,
      "ect": 398,
      "Ġj": 399,
      "ant": 400,
      "Ġus": 401,
      "ĠâĢ": 402,
      "os": 403,
      "ak": 404,
      "ain": 405,
      "Ġcan": 406,
      "Ġfrom": 407,
      "Ġle": 408,
      "igh": 409,
      "pp": 410,
      "ud": 411,
      "em": 412,
      "Ġnot": 413,
      "and": 414,
      "Ġen": 415,
      "oc": 416,
      "Ġ-": 417,
      "ort": 418,
      "Ġsp": 419,
      "Ġ2": 420,
      "Ġsh": 421,
      "Ġu": 422,
      "Ġhave": 423,
      "ren": 424,
      "ial": 425,
      "ure": 426,
      "art": 427,
      "Ġwor": 428,
      "Ġab": 429,
      "ical": 430,
      "ri": 431,
      "og": 432,
      "red": 433,
      "Ġthey": 434,
      "Ġun": 435,
      "Ġwhe": 436,
      "ight": 437,
      "Ġpl": 438,
      "ould": 439,
      "rou": 440,
      "all": 441,
      "ich": 442,
      "pt": 443,
      "gh": 444,
      "Ġim": 445,
      "00": 446,
      "ther": 447,
      "ome": 448,
      "ust": 449,
      "Ġtheir": 450,
      "ions": 451,
      "Ġint": 452,
      "out": 453,
      "ated": 454,
      "ard": 455,
      "Ġall": 456,
      "Ġad": 457,
      "our": 458,
      "ine": 459,
      "ag": 460,
      "per": 461,
      "Ġbut": 462,
      "ide": 463,
      "Ġi": 464,
      "act": 465,
      "ans": 466,
      "ast": 467,
      "Ġwill": 468,
      "pl": 469,
      "Ġwhich": 470,
      "ff": 471,
      "Ġyour": 472,
      "Ġdis": 473,
      "Ġac": 474,
      "age": 475,
      "Ġdo": 476,
      "ous": 477,
      "Ġcl": 478,
      "Ġmore": 479,
      "Ġcont": 480,
      "Ġman": 481,
      "Ġcomp": 482,
      "ult": 483,
      "âĢĿ": 484,
      "ĠâĢľ": 485,
      "ood": 486,
      "du": 487,
      "Ġres": 488,
      "Ġinc": 489,
      "ib": 490,
      "iz": 491,
      "end": 492,
      "ap": 493,
      "Ġar": 494,
      "Ġte": 495,
      "Ġone": 496,
      "Ġme": 497,
      "Ġhas": 498,
      "ru": 499,
      "ie": 500,
      "Ġso": 501,
      "ia": 502,
      "ip": 503,
      "ear": 504,
      "ong": 505,
      "Ġother": 506,
      "vel": 507,
      "ke": 508,
      "so": 509,
      "ild": 510,
      "ore": 511,
      "Ġsc": 512,
      "ations": 513,
      "ater": 514,
      "Ġper": 515,
      "ary": 516,
      "Ġwere": 517,
      "oun": 518,
      "Ġthere": 519,
      "ally": 520,
      "Ġam": 521,
      "ence": 522,
      "orm": 523,
      "ind": 524,
      "ok": 525,
      "Ġhow": 526,
      "able": 527,
      "Ġpe": 528,
      "ry": 529,
      "'s": 530,
      "Ġalso": 531,
      "Ġstud": 532,
      "Ġhis": 533,
      "Ġif": 534,
      "ents": 535,
      "Ġev": 536,
      "Ġwho": 537,
      "Ġwhen": 538,
      "ach": 539,
      "Ġimp": 540,
      "ll": 541,
      "ake": 542,
      "Ġtim": 543,
      "ass": 544,
      "Ġout": 545,
      "reat": 546,
      "Ġ\"": 547,
      "ack": 548,
      "Ġcomm": 549,
      "ction": 550,
      "ance": 551,
      "Ġabout": 552,
      "Ġpart": 553,
      "ign": 554,
      "aus": 555,
      "Ġind": 556,
      "ec": 557,
      "Ġapp": 558,
      "very": 559,
      "av": 560,
      "one": 561,
      "ress": 562,
      "Ġro": 563,
      "Ġco": 564,
      "ice": 565,
      "Ġ19": 566,
      "Ġsome": 567,
      "ase": 568,
      "Ġsy": 569,
      "Ġthese": 570,
      "ose": 571,
      "Ġnew": 572,
      "ell": 573,
      "Ġbec": 574,
      "Ġinf": 575,
      "Ġqu": 576,
      "ition": 577,
      "ame": 578,
      "ber": 579,
      "fe": 580,
      "Ġpre": 581,
      "ish": 582,
      "ace": 583,
      "Ġdi": 584,
      "cess": 585,
      "ory": 586,
      "Ġwork": 587,
      "ount": 588,
      "Ġthem": 589,
      "Ġmay": 590,
      "Ġwhat": 591,
      "Ġgo": 592,
      "Ġup": 593,
      "Ġfe": 594,
      "rent": 595,
      "ens": 596,
      "ord": 597,
      "Ġra": 598,
      "ite": 599,
      "Ġcol": 600,
      "Ġli": 601,
      "ree": 602,
      "ound": 603,
      "now": 604,
      "ces": 605,
      "Ġthan": 606,
      "Ġag": 607,
      "Ġpo": 608,
      "Ġbl": 609,
      ").": 610,
      "Ġyear": 611,
      "ors": 612,
      "ang": 613,
      "Ġpeop": 614,
      "are": 615,
      "Ġph": 616,
      "ub": 617,
      "Ġrec": 618,
      "ue": 619,
      "Ġno": 620,
      "Ġtr": 621,
      "Ġpeople": 622,
      "low": 623,
      "Ġtra": 624,
      "Ġsa": 625,
      "ep": 626,
      "olog": 627,
      "Ġover": 628,
      "ays": 629,
      "Ġbeen": 630,
      "ile": 631,
      "Ġact": 632,
      "ings": 633,
      "Ġour": 634,
      "Ġits": 635,
      "Ġtime": 636,
      "ook": 637,
      "ough": 638,
      "ric": 639,
      "Ġmost": 640,
      "Ġinto": 641,
      "rit": 642,
      "Ġ3": 643,
      "te": 644,
      "ates": 645,
      "ian": 646,
      "we": 647,
      "ph": 648,
      "Ġund": 649,
      "Ġcons": 650,
      "Ġhad": 651,
      "Ġaf": 652,
      "Ġdes": 653,
      "Ġrep": 654,
      "Ġgen": 655,
      "Ġem": 656,
      "Ġuse": 657,
      "Ġtw": 658,
      "ause": 659,
      "Ġinter": 660,
      "Ġlike": 661,
      "Ġdif": 662,
      "Ġknow": 663,
      "vers": 664,
      "Ġwould": 665,
      "ail": 666,
      "Ġchild": 667,
      "Ġpr": 668,
      "rough": 669,
      "Ġfir": 670,
      "Ġbet": 671,
      "ks": 672,
      "ms": 673,
      "Ġunder": 674,
      "ond": 675,
      "ual": 676,
      "erv": 677,
      "Ġmany": 678,
      "Ġ20": 679,
      "Ġrel": 680,
      "Ġmar": 681,
      "lud": 682,
      "les": 683,
      "int": 684,
      "uc": 685,
      "wn": 686,
      "Ġfirst": 687,
      "Ġany": 688,
      "arn": 689,
      "ious": 690,
      "ys": 691,
      "Ġsuch": 692,
      "ific": 693,
      "Ġonly": 694,
      "Ġneed": 695,
      "ject": 696,
      "Ġass": 697,
      "alth": 698,
      "lect": 699,
      "ities": 700,
      "ons": 701,
      "lic": 702,
      "Ġeff": 703,
      "ments": 704,
      "Ġhel": 705,
      "hed": 706,
      "ient": 707,
      "velop": 708,
      "Ġthrough": 709,
      "Ġfl": 710,
      "the": 711,
      "stem": 712,
      "ire": 713,
      "Ġacc": 714,
      "Ġtwo": 715,
      "Ġob": 716,
      "Ġreg": 717,
      "Ġdevelop": 718,
      "Ġinclud": 719,
      "Ġspec": 720,
      "ational": 721,
      "Ġoff": 722,
      "Ġprodu": 723,
      "Ġused": 724,
      "ative": 725,
      "Ġpres": 726,
      "Ġhelp": 727,
      "ced": 728,
      "ular": 729,
      "ple": 730,
      "ating": 731,
      "ath": 732,
      "Ġexp": 733,
      "Ġprov": 734,
      "ĠâĢĵ": 735,
      "Ġcent": 736,
      "round": 737,
      "ink": 738,
      "Ġed": 739,
      "Ġafter": 740,
      "Ġsur": 741,
      "Ġsch": 742,
      "Ġadd": 743,
      "yp": 744,
      "Ġatt": 745,
      "Ġdec": 746,
      "Ġworld": 747,
      "Ġinst": 748,
      "Ġsystem": 749,
      "Ġsm": 750,
      "Ġear": 751,
      "Ġhealth": 752,
      "Ġrese": 753,
      "Ġdiffe": 754,
      "ful": 755,
      "Ġwater": 756,
      "ts": 757,
      "),": 758,
      "Ġrem": 759,
      "ble": 760,
      "ics": 761,
      "Ġmed": 762,
      "Ġwell": 763,
      "oss": 764,
      "ise": 765,
      "uring": 766,
      "Ġresear": 767,
      "eth": 768,
      "Ġ4": 769,
      "old": 770,
      "row": 771,
      "oth": 772,
      "Ġcar": 773,
      "Ġher": 774,
      "als": 775,
      "iss": 776,
      "ife": 777,
      "ange": 778,
      "Ġshould": 779,
      "Ġyears": 780,
      "Ġpol": 781,
      "Ġsub": 782,
      "rib": 783,
      "Ġhigh": 784,
      "erm": 785,
      "Ġbecause": 786,
      "ible": 787,
      "Ġbu": 788,
      "Ġform": 789,
      "Ġwhere": 790,
      "ten": 791,
      "Ġinv": 792,
      "Ġshe": 793,
      "ick": 794,
      "Ġsupp": 795,
      "ower": 796,
      "rop": 797,
      "Ġcould": 798,
      "ool": 799,
      "fore": 800,
      "Ġthen": 801,
      "Ġjust": 802,
      "Ġmake": 803,
      "ased": 804,
      "Ġget": 805,
      "ost": 806,
      "own": 807,
      "ility": 808,
      "Ġ201": 809,
      "Ġeven": 810,
      "Ġgra": 811,
      "ures": 812,
      "sel": 813,
      "ert": 814,
      "erg": 815,
      "Ġ5": 816,
      "Ġpers": 817,
      "ade": 818,
      "eric": 819,
      "ween": 820,
      "Ġmy": 821,
      "Ġlearn": 822,
      "Ġfound": 823,
      "Ġbetween": 824,
      "Ġtrans": 825,
      "Ġsim": 826,
      "Ġcount": 827,
      "urn": 828,
      "ob": 829,
      "Ġsoc": 830,
      "Ġmod": 831,
      "ract": 832,
      "Ġpa": 833,
      "cy": 834,
      "Ġ200": 835,
      "Ġhum": 836,
      "ied": 837,
      "Ġdisc": 838,
      "ting": 839,
      "ution": 840,
      "Ġke": 841,
      "ne": 842,
      "Ġsee": 843,
      "Ġla": 844,
      "ved": 845,
      "gan": 846,
      "ily": 847,
      "its": 848,
      "Ġnum": 849,
      "ram": 850,
      "ident": 851,
      "ants": 852,
      "Ġsec": 853,
      "Ġmon": 854,
      "Ġexam": 855,
      "Ġchildren": 856,
      "hes": 857,
      "Ġlong": 858,
      "Ġgener": 859,
      "Ġevery": 860,
      "Ġpub": 861,
      "Ġeach": 862,
      "Ġvery": 863,
      "Ġimport": 864,
      "Ġeng": 865,
      "ict": 866,
      "ins": 867,
      "ited": 868,
      "Ġthose": 869,
      "Ġlar": 870,
      "Ġdep": 871,
      "Ġpat": 872,
      "Ġread": 873,
      "land": 874,
      "Ġway": 875,
      "uch": 876,
      "ural": 877,
      "ience": 878,
      "ually": 879,
      "Ġwhile": 880,
      "ology": 881,
      "Ġexper": 882,
      "Ġameric": 883,
      "ines": 884,
      "Ġschool": 885,
      "ists": 886,
      "ck": 887,
      "xt": 888,
      "Ġart": 889,
      "Ġeffect": 890,
      "Ġdifferent": 891,
      "Ġfol": 892,
      "Ġduring": 893,
      "Ġsaid": 894,
      "Ġstudents": 895,
      "Ġprog": 896,
      "Ġuni": 897,
      "Ġinform": 898,
      "other": 899,
      "Ġhist": 900,
      "get": 901,
      "Ġcall": 902,
      "ove": 903,
      "ft": 904,
      "chn": 905,
      "ds": 906,
      "cept": 907,
      "Ġdet": 908,
      "Ġmin": 909,
      "Ġlife": 910,
      "Ġtyp": 911,
      "iet": 912,
      "Ġwar": 913,
      "ism": 914,
      "Ġdr": 915,
      "Ġbeing": 916,
      "Ġincre": 917,
      "tern": 918,
      "Ġma": 919,
      "Ġpar": 920,
      "Ġresp": 921,
      "Ġbr": 922,
      "Ġfact": 923,
      "Ġnat": 924,
      "aking": 925,
      "ever": 926,
      "Ġext": 927,
      "Ġ18": 928,
      "..": 929,
      "Ġsign": 930,
      "Ġche": 931,
      "Ġgl": 932,
      "Ġnow": 933,
      "Ġfood": 934,
      "ives": 935,
      "Ġright": 936,
      "Ġcommun": 937,
      "Ġstate": 938,
      "Ġfam": 939,
      "Ġcre": 940,
      "Ġloc": 941,
      "ps": 942,
      "Ġday": 943,
      "Ġvar": 944,
      "Ġtechn": 945,
      ".âĢĿ": 946,
      "ically": 947,
      "tle": 948,
      "Ġcor": 949,
      "Ġdist": 950,
      "Ġmuch": 951,
      "iew": 952,
      "Ġsk": 953,
      "cc": 954,
      "Ġaut": 955,
      "form": 956,
      "Ġcur": 957,
      "Ġgood": 958,
      "led": 959,
      "Ġresult": 960,
      "Ġset": 961,
      "Ġent": 962,
      "Ġback": 963,
      "con": 964,
      "Ġresearch": 965,
      "ather": 966,
      "Ġav": 967,
      "Ġpartic": 968,
      "Ġmus": 969,
      "cer": 970,
      "Ġown": 971,
      "Ġstudy": 972,
      "Ġfind": 973,
      "ody": 974,
      "Ġdoes": 975,
      "Ġfollow": 976,
      "ness": 977,
      "Ġdef": 978,
      "li": 979,
      "vent": 980,
      "ward": 981,
      "Ġhowever": 982,
      "ving": 983,
      "Ġ6": 984,
      "ros": 985,
      "ron": 986,
      "Ġboth": 987,
      "vern": 988,
      "ues": 989,
      "Ġinformation": 990,
      "Ġbefore": 991,
      "Ġdat": 992,
      "Ġlead": 993,
      "Ġprocess": 994,
      "rect": 995,
      "Ġend": 996,
      "iron": 997,
      "Ġmade": 998,
      "Ġbo": 999,
      "cent": 1000,
      "Ġpop": 1001,
      "Ġgrou": 1002,
      "ages": 1003,
      "Ġchar": 1004,
      "Ġins": 1005,
      "Ġimportant": 1006,
      "ases": 1007,
      "ruct": 1008,
      "Ġproble": 1009,
      "Ġlevel": 1010,
      "Ġlit": 1011,
      "Ġusing": 1012,
      "Ġhim": 1013,
      "day": 1014,
      "Ġsame": 1015,
      "Ġlook": 1016,
      "Ġperson": 1017,
      "Ġstr": 1018,
      "Ġgreat": 1019,
      "io": 1020,
      "Ġexpl": 1021,
      "gg": 1022,
      "Ġval": 1023,
      "Ġtest": 1024,
      "ted": 1025,
      "Ġagain": 1026,
      "Ġsol": 1027,
      "Ġbel": 1028,
      "Ġshow": 1029,
      "Ġrequ": 1030,
      "Ġgu": 1031,
      "Ġref": 1032,
      "Ġclass": 1033,
      "Ġgovern": 1034,
      "ves": 1035,
      "Ġwom": 1036,
      "Ġless": 1037,
      "Ġsmall": 1038,
      "und": 1039,
      "ized": 1040,
      "Ġserv": 1041,
      "Ġhuman": 1042,
      "Ġprot": 1043,
      "Ġtake": 1044,
      "ning": 1045,
      "Ġjo": 1046,
      "ere": 1047,
      "ale": 1048,
      "Ġmem": 1049,
      "Ġcomple": 1050,
      "Ġpower": 1051,
      "Ġdown": 1052,
      "Ġgre": 1053,
      "Ġtreat": 1054,
      "ize": 1055,
      "Ġeduc": 1056,
      "read": 1057,
      "hip": 1058,
      "ty": 1059,
      "Ġdise": 1060,
      "ene": 1061,
      "ices": 1062,
      "Ġvis": 1063,
      "Ġmain": 1064,
      "Ġoften": 1065,
      "Ġdid": 1066,
      "ality": 1067,
      "Ġz": 1068,
      "Ġmat": 1069,
      "Ġgrow": 1070,
      "Ġsin": 1071,
      "Ġplan": 1072,
      "000": 1073,
      "Ġbook": 1074,
      "Ġthree": 1075,
      "Ġthough": 1076,
      "der": 1077,
      "Ġsom": 1078,
      "Ġret": 1079,
      "Ġcle": 1080,
      "Ġland": 1081,
      "Ġdata": 1082,
      "Ġhere": 1083,
      "Ġorgan": 1084,
      "Ġhand": 1085,
      "ger": 1086,
      "ially": 1087,
      "Ġcontro": 1088,
      "versity": 1089,
      "Ġcal": 1090,
      "Ġocc": 1091,
      "inal": 1092,
      "ined": 1093,
      "Ġconst": 1094,
      "Ġser": 1095,
      "Ġenv": 1096,
      "Ġposs": 1097,
      "stand": 1098,
      "Ġ10": 1099,
      "Ġbody": 1100,
      "ork": 1101,
      "com": 1102,
      "iel": 1103,
      "Ġfar": 1104,
      "akes": 1105,
      "Ġcour": 1106,
      "ergy": 1107,
      "Ġnumber": 1108,
      "Ġbra": 1109,
      "Ġaround": 1110,
      "ivid": 1111,
      "Ġris": 1112,
      "ished": 1113,
      "Ġcommon": 1114,
      "Ġfun": 1115,
      "oy": 1116,
      "Ġstart": 1117,
      "Ġdesign": 1118,
      "Ġop": 1119,
      "Ġreport": 1120,
      "Ġsou": 1121,
      "Ġ7": 1122,
      "Ġwrit": 1123,
      "ected": 1124,
      "Ġest": 1125,
      "ix": 1126,
      "de": 1127,
      "Ġactiv": 1128,
      "ute": 1129,
      "Ġpoint": 1130,
      "cl": 1131,
      "ters": 1132,
      "ury": 1133,
      "Ġdon": 1134,
      "Ġelect": 1135,
      "imate": 1136,
      "Ġgod": 1137,
      "Ġcell": 1138,
      "Ġenviron": 1139,
      "Ġthink": 1140,
      "Ġconf": 1141,
      "hers": 1142,
      "Ġstates": 1143,
      "iving": 1144,
      "Ġmet": 1145,
      "Ġanother": 1146,
      "Ġ|": 1147,
      "Ġpublic": 1148,
      "Ġmust": 1149,
      "Ġcontin": 1150,
      "Ġeas": 1151,
      "Ġintern": 1152,
      "ulation": 1153,
      "ral": 1154,
      "Ġant": 1155,
      "Ġ8": 1156,
      "self": 1157,
      "Ġredu": 1158,
      "Ġsl": 1159,
      "ides": 1160,
      "way": 1161,
      "Ġcare": 1162,
      "Ġsupport": 1163,
      "Ġbuild": 1164,
      "up": 1165,
      "Ġnational": 1166,
      "Ġcond": 1167,
      "ĠâĢĺ": 1168,
      "ids": 1169,
      "Ġquest": 1170,
      "Ġlarge": 1171,
      "iety": 1172,
      "Ġrev": 1173,
      "Ġstill": 1174,
      "Ġbeh": 1175,
      "Ġstand": 1176,
      "Ġadv": 1177,
      "ah": 1178,
      "ien": 1179,
      "Ġide": 1180,
      "Ġdem": 1181,
      "Ġprof": 1182,
      "Ġequ": 1183,
      "Ġenergy": 1184,
      "Ġplace": 1185,
      "Ġaff": 1186,
      "ains": 1187,
      "uss": 1188,
      "Ġbro": 1189,
      "ock": 1190,
      ".\"": 1191,
      "Ġcalled": 1192,
      "ium": 1193,
      "Ġexample": 1194,
      "Ġel": 1195,
      "ull": 1196,
      "ouse": 1197,
      "Ġunderstand": 1198,
      "Ġwomen": 1199,
      "Ġphys": 1200,
      "ared": 1201,
      "ross": 1202,
      "Ġlaw": 1203,
      "Ġhistory": 1204,
      "Ġenvironment": 1205,
      "Ġair": 1206,
      "Ġnor": 1207,
      "Ġsince": 1208,
      "Ġpract": 1209,
      ",âĢĿ": 1210,
      "Ġbas": 1211,
      "Ġpresent": 1212,
      "Ġtem": 1213,
      "acter": 1214,
      "me": 1215,
      "Ġallow": 1216,
      "orn": 1217,
      ".,": 1218,
      "Ġspe": 1219,
      "Ġold": 1220,
      "Ġbi": 1221,
      "Ġknown": 1222,
      "Ġlight": 1223,
      "Ġproject": 1224,
      "Ġ9": 1225,
      "ital": 1226,
      "Ġcap": 1227,
      "Ġchange": 1228,
      "Ġbre": 1229,
      "iven": 1230,
      "20": 1231,
      "Ġfew": 1232,
      "Ġdevelopment": 1233,
      "Ġwant": 1234,
      "Ġwithout": 1235,
      "Ġuniversity": 1236,
      "Ġpur": 1237,
      "Ġve": 1238,
      "ave": 1239,
      "Ġsocial": 1240,
      "ets": 1241,
      "man": 1242,
      "Ġdirect": 1243,
      "'t": 1244,
      "Ġplay": 1245,
      "Ġgovernment": 1246,
      "Ġmill": 1247,
      "au": 1248,
      "itions": 1249,
      "âĢĶ": 1250,
      "||": 1251,
      "inc": 1252,
      "hen": 1253,
      "Ġbelie": 1254,
      "ional": 1255,
      "Ġwithin": 1256,
      "Ġmil": 1257,
      "Ġsym": 1258,
      "Ġchang": 1259,
      "Ġsecond": 1260,
      "Ġimm": 1261,
      "Ġincluding": 1262,
      "19": 1263,
      "ature": 1264,
      "Ġcaus": 1265,
      "Ġmark": 1266,
      "Ġdisease": 1267,
      "air": 1268,
      "Ġappro": 1269,
      "Ġindivid": 1270,
      "Ġhome": 1271,
      "ering": 1272,
      "ars": 1273,
      "Ġmight": 1274,
      "ired": 1275,
      "Ġamerican": 1276,
      "Ġfin": 1277,
      "Ġpot": 1278,
      "osed": 1279,
      "erest": 1280,
      "Ġmater": 1281,
      "ection": 1282,
      "Ġlast": 1283,
      "Ġsw": 1284,
      "Ġes": 1285,
      "anc": 1286,
      "Ġpass": 1287,
      "Ġiss": 1288,
      "ries": 1289,
      "Ġprogram": 1290,
      "rence": 1291,
      "ording": 1292,
      "alk": 1293,
      "oci": 1294,
      "Ġlet": 1295,
      "ians": 1296,
      "Ġanim": 1297,
      "Ġsit": 1298,
      "Ġinterest": 1299,
      "bers": 1300,
      "ense": 1301,
      "eng": 1302,
      "ived": 1303,
      "Ġindividual": 1304,
      "ark": 1305,
      "Ġleg": 1306,
      "ner": 1307,
      "Ġgroup": 1308,
      "Ġarea": 1309,
      "itive": 1310,
      "Ġcult": 1311,
      "ason": 1312,
      "Ġcr": 1313,
      "Ġmeth": 1314,
      "lish": 1315,
      "oms": 1316,
      "Ġfore": 1317,
      "Ġkeep": 1318,
      "Ġtre": 1319,
      "ertain": 1320,
      "Ġter": 1321,
      "Ġpain": 1322,
      "Ġearly": 1323,
      "Ġblood": 1324,
      "Ġlow": 1325,
      "Ġpos": 1326,
      "Ġecon": 1327,
      "ton": 1328,
      "Ġeconom": 1329,
      "Ġrest": 1330,
      "ination": 1331,
      "pr": 1332,
      "gin": 1333,
      "raph": 1334,
      "Ġcontrol": 1335,
      "Ġdesc": 1336,
      "Ġident": 1337,
      "Ġmaj": 1338,
      "Ġhar": 1339,
      "Ġmen": 1340,
      "Ġsour": 1341,
      "Ġge": 1342,
      "Ġproduct": 1343,
      "angu": 1344,
      "Ġsay": 1345,
      "Ġscient": 1346,
      "ior": 1347,
      "Ġsever": 1348,
      "to": 1349,
      "ax": 1350,
      "ank": 1351,
      "Ġassoci": 1352,
      "Ġmaterial": 1353,
      "Ġlearning": 1354,
      "Ġopp": 1355,
      "Ġbest": 1356,
      "bs": 1357,
      "âĢĵ": 1358,
      "Ġpost": 1359,
      "Ġpress": 1360,
      "els": 1361,
      "ption": 1362,
      "Ġmove": 1363,
      "ential": 1364,
      "co": 1365,
      "Ġmeas": 1366,
      "Ġimpro": 1367,
      "rist": 1368,
      "ier": 1369,
      "Ġwhy": 1370,
      "Ġele": 1371,
      "ization": 1372,
      "ration": 1373,
      "Ġauth": 1374,
      "ered": 1375,
      "Ġfamily": 1376,
      "hing": 1377,
      "Ġgr": 1378,
      "Ġreal": 1379,
      "Ġcam": 1380,
      "less": 1381,
      "Ġmean": 1382,
      "Ġtop": 1383,
      "Ġorder": 1384,
      "Ġlab": 1385,
      "erc": 1386,
      "Ġaccording": 1387,
      "line": 1388,
      "Ġ[": 1389,
      "Ġanal": 1390,
      "agn": 1391,
      "Ġtoo": 1392,
      "Ġet": 1393,
      "Ġ199": 1394,
      "Ġthings": 1395,
      "ov": 1396,
      "Ġrisk": 1397,
      "Ġlangu": 1398,
      "Ġfr": 1399,
      "Ġbecome": 1400,
      "Ġeu": 1401,
      "Ġeducation": 1402,
      "Ġmajor": 1403,
      "Ġagainst": 1404,
      "ained": 1405,
      "10": 1406,
      "any": 1407,
      "Ġfre": 1408,
      "Ġcurrent": 1409,
      "Ġ&": 1410,
      "Ġbetter": 1411,
      "Ġtoday": 1412,
      "ining": 1413,
      "Ġorig": 1414,
      "Ġamong": 1415,
      "Ġdev": 1416,
      "Ġvir": 1417,
      "ern": 1418,
      "Ġturn": 1419,
      "Ġnear": 1420,
      "Ġscience": 1421,
      "iness": 1422,
      "Ġfree": 1423,
      "ways": 1424,
      "Ġtimes": 1425,
      "Ġearth": 1426,
      "ield": 1427,
      "Ġhapp": 1428,
      "Ġsuc": 1429,
      "Ġseveral": 1430,
      "ified": 1431,
      "Ġopen": 1432,
      "Ġdra": 1433,
      "Ġbir": 1434,
      "ats": 1435,
      "Ġbus": 1436,
      "ently": 1437,
      "Ġproper": 1438,
      "Ġaddition": 1439,
      "ider": 1440,
      "iod": 1441,
      "Ġfour": 1442,
      "na": 1443,
      "Ġbene": 1444,
      "Ġunt": 1445,
      "Ġinclude": 1446,
      "ological": 1447,
      "Ġnon": 1448,
      "atic": 1449,
      "Ġprop": 1450,
      "rodu": 1451,
      "Ġmethod": 1452,
      "Ġwee": 1453,
      "Ġvol": 1454,
      "ug": 1455,
      "Ġunited": 1456,
      "Ġmeans": 1457,
      "mm": 1458,
      "Ġinfl": 1459,
      "ories": 1460,
      "Ġplant": 1461,
      "Ġhead": 1462,
      "lished": 1463,
      "Ġavail": 1464,
      "Ġlim": 1465,
      "que": 1466,
      "Ġothers": 1467,
      "Ġnatural": 1468,
      "Ġlittle": 1469,
      "Ġage": 1470,
      "Ġlo": 1471,
      "Ġcity": 1472,
      "Ġspecies": 1473,
      "Ġhig": 1474,
      "Ġpercent": 1475,
      "Ġcreat": 1476,
      "Ġprom": 1477,
      "Ġcause": 1478,
      "Ġable": 1479,
      "Ġyoun": 1480,
      "Ġ.": 1481,
      "Ġput": 1482,
      "Ġ15": 1483,
      "Ġoper": 1484,
      "Ġperiod": 1485,
      "ĠâĢĶ": 1486,
      "ability": 1487,
      "Ġoccur": 1488,
      "ised": 1489,
      "ify": 1490,
      "Ġcountry": 1491,
      "ention": 1492,
      "sc": 1493,
      "Ġname": 1494,
      "fic": 1495,
      "Ġsays": 1496,
      "Ġparticular": 1497,
      "ients": 1498,
      "br": 1499,
      "Ġartic": 1500,
      "Ġlist": 1501,
      "Ġprevent": 1502,
      "gen": 1503,
      "ples": 1504,
      "Ġchrist": 1505,
      "ex": 1506,
      "Ġcost": 1507,
      "Ġhy": 1508,
      "Ġbased": 1509,
      "Ġcome": 1510,
      "Ġhard": 1511,
      "sh": 1512,
      "ental": 1513,
      "Ġpossible": 1514,
      "Ġfeel": 1515,
      "ograph": 1516,
      "ww": 1517,
      "az": 1518,
      "idence": 1519,
      "ills": 1520,
      "Ġperform": 1521,
      "cle": 1522,
      "Ġrun": 1523,
      "Ġinvol": 1524,
      "Ġview": 1525,
      "work": 1526,
      "Ġteac": 1527,
      ",\"": 1528,
      "Ġcolle": 1529,
      "par": 1530,
      "ime": 1531,
      "Ġca": 1532,
      "wh": 1533,
      "Ġlater": 1534,
      "not": 1535,
      "ision": 1536,
      "ven": 1537,
      "ina": 1538,
      "Ġprovide": 1539,
      "Ġmonth": 1540,
      "ission": 1541,
      "Ġhouse": 1542,
      "Ġfollowing": 1543,
      "Ġnorth": 1544,
      "ards": 1545,
      "Ġfur": 1546,
      "Ġproblem": 1547,
      "be": 1548,
      "Ġcertain": 1549,
      "Ġtreatment": 1550,
      "ret": 1551,
      "Ġcho": 1552,
      "Ġgeneral": 1553,
      "ency": 1554,
      "Ġconn": 1555,
      "Ġfac": 1556,
      "Ġgiven": 1557,
      "Ġheart": 1558,
      "Ġess": 1559,
      "ends": 1560,
      "Ġuntil": 1561,
      "Ġareas": 1562,
      "Ġrad": 1563,
      "Ġsouth": 1564,
      "Ġtrad": 1565,
      "Ġ17": 1566,
      "Ġavailable": 1567,
      "pec": 1568,
      "Ġsal": 1569,
      "sy": 1570,
      "Ġresour": 1571,
      "rap": 1572,
      "though": 1573,
      "Ġcomput": 1574,
      "ided": 1575,
      "Ġonce": 1576,
      "ogn": 1577,
      "ames": 1578,
      "Ġer": 1579,
      "Ġprofess": 1580,
      "Ġblack": 1581,
      "ator": 1582,
      "ilar": 1583,
      "Ġcir": 1584,
      "ably": 1585,
      "Ġcase": 1586,
      "Ġtype": 1587,
      "Ġsignific": 1588,
      "pect": 1589,
      "Ġstruct": 1590,
      "ething": 1591,
      "Ġill": 1592,
      "ane": 1593,
      "tt": 1594,
      "rope": 1595,
      "Ġpolit": 1596,
      "Ġsuccess": 1597,
      "Ġnever": 1598,
      "osp": 1599,
      "Ġsing": 1600,
      "Ġparent": 1601,
      "ones": 1602,
      "Ġaccess": 1603,
      "Ġflow": 1604,
      "ots": 1605,
      "ling": 1606,
      "Ġspace": 1607,
      "Ġproblems": 1608,
      "Ġlanguage": 1609,
      "Ġmult": 1610,
      "Ġobject": 1611,
      "ended": 1612,
      "Ġmaking": 1613,
      "Ġtechnology": 1614,
      "Ġmedic": 1615,
      "Ġlocal": 1616,
      "Ġshort": 1617,
      "Ġ12": 1618,
      "Ġseem": 1619,
      "Ġbehav": 1620,
      "Ġmid": 1621,
      "Ġnext": 1622,
      "Ġsomething": 1623,
      "ash": 1624,
      "Ġdeath": 1625,
      "Ġdue": 1626,
      "Ġfil": 1627,
      "Ġalthough": 1628,
      "Ġcancer": 1629,
      "Ġauthor": 1630,
      "ik": 1631,
      "Ġtry": 1632,
      "Ġ'": 1633,
      "Ġwords": 1634,
      "Ġfoc": 1635,
      "hn": 1636,
      "Ġobs": 1637,
      "Ġrepres": 1638,
      "Ġsimilar": 1639,
      "Ġask": 1640,
      "ggest": 1641,
      "Ġrece": 1642,
      "Ġsun": 1643,
      "Ġje": 1644,
      "Ġalong": 1645,
      "Ġresearc": 1646,
      "here": 1647,
      "Ġcentury": 1648,
      "ither": 1649,
      "Ġsuggest": 1650,
      "cing": 1651,
      "Ġeurope": 1652,
      "Ġnet": 1653,
      "Ġx": 1654,
      "Ġyoung": 1655,
      "ances": 1656,
      "Ġindust": 1657,
      "une": 1658,
      "Ġgive": 1659,
      "Ġdays": 1660,
      "Ġpast": 1661,
      "ateg": 1662,
      "pa": 1663,
      "eral": 1664,
      "Ġalways": 1665,
      "oid": 1666,
      "Ġlevels": 1667,
      "Ġwhite": 1668,
      "Ġcommunity": 1669,
      "Ġfurther": 1670,
      "Ġste": 1671,
      "Ġking": 1672,
      "Ġbrain": 1673,
      "Ġamount": 1674,
      "Ġstudies": 1675,
      "Ġstep": 1676,
      "Ġspecial": 1677,
      "Ġbat": 1678,
      "aw": 1679,
      "ression": 1680,
      "Ġdam": 1681,
      "Ġsel": 1682,
      "Ġbegin": 1683,
      "ured": 1684,
      "Ġwr": 1685,
      "Ġfocus": 1686,
      "Ġmic": 1687,
      "Ġfut": 1688,
      "Ġey": 1689,
      "aken": 1690,
      "Ġprev": 1691,
      "Ġtru": 1692,
      "Ġcat": 1693,
      "Ġusually": 1694,
      "Ġclear": 1695,
      "Ġ16": 1696,
      "olution": 1697,
      "Ġbar": 1698,
      "Ġri": 1699,
      "por": 1700,
      "Ġcells": 1701,
      "Ġcourse": 1702,
      "aps": 1703,
      "Ġglob": 1704,
      "Ġred": 1705,
      "Ġbig": 1706,
      "Ġlikely": 1707,
      "ately": 1708,
      "ledge": 1709,
      "Ġmor": 1710,
      "__": 1711,
      "Ġphot": 1712,
      "Ġresults": 1713,
      "Ġcreate": 1714,
      "Ġrecord": 1715,
      "Ġarm": 1716,
      "Ġappear": 1717,
      "ried": 1718,
      "Ġdeterm": 1719,
      "Ġbrit": 1720,
      "Ġmass": 1721,
      "Ġline": 1722,
      "Ġcomb": 1723,
      "Ġconsum": 1724,
      "Ġcy": 1725,
      "Ġenc": 1726,
      "hy": 1727,
      "Ġtoget": 1728,
      "Ġtogether": 1729,
      "Ġinstit": 1730,
      "Ġinvest": 1731,
      "Ġhaving": 1732,
      "Ġwind": 1733,
      "Ġbenef": 1734,
      "Ġpopulation": 1735,
      "Ġ0": 1736,
      "ope": 1737,
      "go": 1738,
      "Ġword": 1739,
      "Ġsignificant": 1740,
      "Ġfunction": 1741,
      "Ġimpact": 1742,
      "ming": 1743,
      "Ġsystems": 1744,
      "Ġleft": 1745,
      "Ġur": 1746,
      "Ġrele": 1747,
      "arch": 1748,
      "Ġmot": 1749,
      "imes": 1750,
      "ploy": 1751,
      "Ġport": 1752,
      "Ġcharacter": 1753,
      "Ġchem": 1754,
      "tal": 1755,
      "Ġlib": 1756,
      "Ġabove": 1757,
      "Ġkind": 1758,
      "Ġ$": 1759,
      "Ġexist": 1760,
      "Ġmillion": 1761,
      "Ġside": 1762,
      "Ġgerm": 1763,
      "Ġfuture": 1764,
      "Ġcrit": 1765,
      "Ġdiscuss": 1766,
      "min": 1767,
      "Ġafric": 1768,
      "ox": 1769,
      "Ġdiffic": 1770,
      "most": 1771,
      "Ġnorm": 1772,
      "Ġarch": 1773,
      "Ġincrease": 1774,
      "Ġworking": 1775,
      "ler": 1776,
      "Ġstory": 1777,
      "Ġdifficult": 1778,
      "Ġstrong": 1779,
      "Ġteach": 1780,
      "sw": 1781,
      "Ġaway": 1782,
      "Ġwhether": 1783,
      "atory": 1784,
      "mon": 1785,
      "ortun": 1786,
      "Ġsuff": 1787,
      "Ġsociety": 1788,
      "face": 1789,
      "Ġleast": 1790,
      "Ġmanage": 1791,
      "etic": 1792,
      "Ġcomplete": 1793,
      "Ġgreen": 1794,
      "ending": 1795,
      "Ġfull": 1796,
      "Ġexperience": 1797,
      "Ġdescrib": 1798,
      "Ġmind": 1799,
      "Ġhigher": 1800,
      "Ġkey": 1801,
      "Ġgoing": 1802,
      "Ġstat": 1803,
      "rug": 1804,
      "bit": 1805,
      "Ġcountries": 1806,
      "Ġpatients": 1807,
      "aster": 1808,
      "ote": 1809,
      "selves": 1810,
      "Ġnature": 1811,
      "Ġcirc": 1812,
      "Ġprim": 1813,
      "Ġjohn": 1814,
      "pecially": 1815,
      "Ġeffective": 1816,
      "Ġsam": 1817,
      "thing": 1818,
      "oney": 1819,
      "Ġtemper": 1820,
      "Ġnut": 1821,
      "Ġver": 1822,
      "Ġjour": 1823,
      "Ġacross": 1824,
      "Ġann": 1825,
      "of": 1826,
      "Ġenough": 1827,
      "Ġhal": 1828,
      "Ġplac": 1829,
      "Ġplants": 1830,
      "Ġchur": 1831,
      "aves": 1832,
      "ring": 1833,
      "Ġmedical": 1834,
      "ware": 1835,
      "Ġneeds": 1836,
      "12": 1837,
      "Ġresearchers": 1838,
      "Ġspecific": 1839,
      "ctor": 1840,
      "Ġrather": 1841,
      "Ġquestion": 1842,
      "Ġbusiness": 1843,
      "ember": 1844,
      "Ġestab": 1845,
      "Ġreally": 1846,
      "ison": 1847,
      "ape": 1848,
      "Ġchanges": 1849,
      "Ġsubject": 1850,
      "Ġsympt": 1851,
      "50": 1852,
      "Ġfund": 1853,
      "ours": 1854,
      "Ġself": 1855,
      "for": 1856,
      "Ġhistor": 1857,
      "Ġsens": 1858,
      "Ġarticle": 1859,
      "amm": 1860,
      "Ġconsider": 1861,
      "Ġknowledge": 1862,
      "ators": 1863,
      "Ġlive": 1864,
      "aining": 1865,
      "Ġeffects": 1866,
      "asing": 1867,
      "ruction": 1868,
      "Ġpolic": 1869,
      "omes": 1870,
      "Ġterm": 1871,
      "Ġyet": 1872,
      "Ġfall": 1873,
      "Ġground": 1874,
      "Ġrespons": 1875,
      "fer": 1876,
      "Ġnecess": 1877,
      "Ġphysical": 1878,
      "Ġir": 1879,
      "omm": 1880,
      "iation": 1881,
      "Ġways": 1882,
      "Ġlower": 1883,
      "Ġap": 1884,
      "ilt": 1885,
      "Ġsumm": 1886,
      "Ġrepresent": 1887,
      "Ġdrug": 1888,
      "Ġbecame": 1889,
      "Ġtool": 1890,
      "Ġvarious": 1891,
      "Ġinternational": 1892,
      "Ġconditions": 1893,
      "Ġpaper": 1894,
      "Ġdig": 1895,
      "Ġlat": 1896,
      "Ġvi": 1897,
      "ribut": 1898,
      "Ġespecially": 1899,
      "Ġtell": 1900,
      "Ġcop": 1901,
      "Ġevent": 1902,
      "Ġreason": 1903,
      "ged": 1904,
      "Ġdom": 1905,
      "mit": 1906,
      "Ġinflu": 1907,
      "ley": 1908,
      "Ġfig": 1909,
      "Ġrelations": 1910,
      "Ġtext": 1911,
      "ray": 1912,
      "...": 1913,
      "aring": 1914,
      "Ġweek": 1915,
      "Ġbelow": 1916,
      "18": 1917,
      "Ġapplic": 1918,
      "Ġnews": 1919,
      "by": 1920,
      "Ġoffic": 1921,
      "Ġrelig": 1922,
      "Ġpred": 1923,
      "Ġteam": 1924,
      "Ġcenter": 1925,
      "Ġsat": 1926,
      "Ġenglish": 1927,
      "Ġwat": 1928,
      "Ġclimate": 1929,
      "aim": 1930,
      "Ġbuilding": 1931,
      "Ġaccount": 1932,
      "Ġactivity": 1933,
      "Ġsource": 1934,
      "Ġseen": 1935,
      "Ġfri": 1936,
      "Ġconcer": 1937,
      "Ġindic": 1938,
      "Ġsure": 1939,
      "nal": 1940,
      "Ġmakes": 1941,
      "Ġengine": 1942,
      "Ġreturn": 1943,
      "ode": 1944,
      "ma": 1945,
      "Ġrights": 1946,
      "Ġfive": 1947,
      "ready": 1948,
      "ument": 1949,
      "Ġmodel": 1950,
      "Ġthus": 1951,
      "Ġimprove": 1952,
      "Ġtoward": 1953,
      "Ġdel": 1954,
      "eds": 1955,
      "ued": 1956,
      "let": 1957,
      "Ġcoun": 1958,
      "Ġresources": 1959,
      "Ġtradition": 1960,
      "Ġrom": 1961,
      "Ġfield": 1962,
      "Ġprotect": 1963,
      "Ġparticip": 1964,
      "Ġintrodu": 1965,
      "Ġ30": 1966,
      "Ġcut": 1967,
      "oot": 1968,
      "Ġopt": 1969,
      "Ġdone": 1970,
      "Ġabs": 1971,
      "Ġglobal": 1972,
      "istic": 1973,
      "ilities": 1974,
      "11": 1975,
      "cul": 1976,
      "Ġneg": 1977,
      "Ġ=": 1978,
      "Ġcommunic": 1979,
      "orts": 1980,
      "Ġinit": 1981,
      "Ġsymptoms": 1982,
      "iting": 1983,
      "Ġeither": 1984,
      "Ġthir": 1985,
      "Ġalready": 1986,
      "Ġprob": 1987,
      "Ġach": 1988,
      "Ġworks": 1989,
      "aut": 1990,
      "plic": 1991,
      "ned": 1992,
      "Ġmodern": 1993,
      "Ġple": 1994,
      "Ġreading": 1995,
      "Ġoil": 1996,
      "Ġsound": 1997,
      "Ġclose": 1998,
      "ables": 1999,
      "Ġsuper": 2000,
      "ott": 2001,
      "Ġobserv": 2002,
      "Ġupon": 2003,
      "Ġgroups": 2004,
      "Ġrole": 2005,
      "Ġrequire": 2006,
      "Ġtypes": 2007,
      "Ġliving": 2008,
      "//": 2009,
      "side": 2010,
      "Ġactually": 2011,
      "Ġmal": 2012,
      "ires": 2013,
      "Ġstudent": 2014,
      "Ġwhole": 2015,
      "Ġlot": 2016,
      "Ġchall": 2017,
      "Ġcases": 2018,
      "Ġphil": 2019,
      "edi": 2020,
      "Ġarg": 2021,
      "ored": 2022,
      "Ġ14": 2023,
      "ening": 2024,
      "verse": 2025,
      "Ġquestions": 2026,
      "ites": 2027,
      "Ġdeg": 2028,
      "over": 2029,
      "Ġevidence": 2030,
      "Ġanalys": 2031,
      "Ġstre": 2032,
      "Ġthought": 2033,
      "âĢ¦": 2034,
      "Ġvalue": 2035,
      "Ġcolor": 2036,
      "Ġchurch": 2037,
      "Ġsite": 2038,
      "verage": 2039,
      "ising": 2040,
      "Ġcame": 2041,
      "oura": 2042,
      "ae": 2043,
      "Ġservice": 2044,
      "Ġsent": 2045,
      "Ġproduction": 2046,
      "Ġconcept": 2047,
      "Ġsea": 2048,
      "Ġce": 2049,
      "Ġgrowth": 2050,
      "etimes": 2051,
      "://": 2052,
      "ung": 2053,
      "Ġfail": 2054,
      "Ġamerica": 2055,
      "Ġwild": 2056,
      "Ġ198": 2057,
      "Ġanimals": 2058,
      "Ġ13": 2059,
      "Ġrange": 2060,
      "ead": 2061,
      "Ġ11": 2062,
      "ls": 2063,
      "Ġwin": 2064,
      "Ġanc": 2065,
      "Ġciv": 2066,
      "Ġrecogn": 2067,
      "Ġparents": 2068,
      "Ġactivities": 2069,
      "Ġtaken": 2070,
      "Ġfat": 2071,
      "lo": 2072,
      "augh": 2073,
      "Ġfed": 2074,
      "Ġtherefore": 2075,
      "Ġansw": 2076,
      "Ġhold": 2077,
      "Ġsingle": 2078,
      "atures": 2079,
      "Ġweight": 2080,
      "Ġcreated": 2081,
      "Ġmembers": 2082,
      "Ġwriting": 2083,
      "Ġmeet": 2084,
      "hem": 2085,
      "Ġsitu": 2086,
      "ipp": 2087,
      "Ġprinc": 2088,
      "Ġadult": 2089,
      "Ġfish": 2090,
      "Ġcarb": 2091,
      "Ġpractice": 2092,
      "Ġpolitical": 2093,
      "Ġisland": 2094,
      "Ġalmost": 2095,
      "Ġdest": 2096,
      "Ġskills": 2097,
      "Ġdiet": 2098,
      "sych": 2099,
      "Ġunderstanding": 2100,
      "Ġloss": 2101,
      "Ġrate": 2102,
      "Ġsubst": 2103,
      "Ġdeveloped": 2104,
      "Ġquality": 2105,
      "Ġattack": 2106,
      "Ġliter": 2107,
      "ival": 2108,
      "Ġpay": 2109,
      "ĠÂ": 2110,
      "eg": 2111,
      "Ġbal": 2112,
      "Ġsimple": 2113,
      "Ġflu": 2114,
      "Ġep": 2115,
      "Ġidea": 2116,
      "Ġcollect": 2117,
      "Ġpublished": 2118,
      "Ġachie": 2119,
      "Ġfa": 2120,
      "200": 2121,
      "Ġcompany": 2122,
      "Ġskin": 2123,
      "dle": 2124,
      "osis": 2125,
      "Ġut": 2126,
      "Ġeconomic": 2127,
      "itor": 2128,
      "Ġever": 2129,
      "ges": 2130,
      "Ġemploy": 2131,
      "Ġcoll": 2132,
      "iple": 2133,
      "Ġju": 2134,
      "idered": 2135,
      "Ġsurface": 2136,
      "Ġsometimes": 2137,
      "ibility": 2138,
      "illed": 2139,
      "Ġsoil": 2140,
      "Ġthemselves": 2141,
      "Ġaffect": 2142,
      "Ġlink": 2143,
      "rie": 2144,
      "Ġpotential": 2145,
      "ips": 2146,
      "Ġdoc": 2147,
      "ification": 2148,
      "son": 2149,
      "Ġexerc": 2150,
      "Ġsize": 2151,
      "Ġenvironmental": 2152,
      "gest": 2153,
      "Ġstra": 2154,
      "Ġfamil": 2155,
      "Ġfrequ": 2156,
      "Ġdetail": 2157,
      "Ġjew": 2158,
      "Ġproducts": 2159,
      "lement": 2160,
      "ery": 2161,
      "Ġpresident": 2162,
      "Ġaddress": 2163,
      "Ġhealthy": 2164,
      "Ġcannot": 2165,
      "Ġmoney": 2166,
      "Ġpet": 2167,
      "ened": 2168,
      "Ġbill": 2169,
      "Ġmanagement": 2170,
      "Ġmarket": 2171,
      "port": 2172,
      "Ġconsidered": 2173,
      "Ġriver": 2174,
      "Ġpressure": 2175,
      "ands": 2176,
      "Ġinstead": 2177,
      "Ġvers": 2178,
      "fact": 2179,
      "Ġincreased": 2180,
      "ference": 2181,
      "Ġsle": 2182,
      "Ġhalf": 2183,
      "Ġdog": 2184,
      "itud": 2185,
      "Ġtalk": 2186,
      "Ġrecomm": 2187,
      "Ġdepart": 2188,
      "icient": 2189,
      "Ġmusic": 2190,
      "reme": 2191,
      "Ġpsych": 2192,
      "Ġreview": 2193,
      "Ġcomputer": 2194,
      "Ġfire": 2195,
      "Ġcivil": 2196,
      "new": 2197,
      "Ġaust": 2198,
      "ule": 2199,
      "Ġlay": 2200,
      "Ġwide": 2201,
      "Ġgas": 2202,
      "amin": 2203,
      "Ġrelated": 2204,
      "ttp": 2205,
      "Ġassess": 2206,
      "17": 2207,
      "Ġscientists": 2208,
      "Ġassociated": 2209,
      "mber": 2210,
      "Ġast": 2211,
      "15": 2212,
      "Ġmount": 2213,
      "30": 2214,
      "Ġquick": 2215,
      "Ġwest": 2216,
      "epend": 2217,
      "duct": 2218,
      "Ġjob": 2219,
      "acy": 2220,
      "Ġissues": 2221,
      "af": 2222,
      "Ġopportun": 2223,
      "Ġface": 2224,
      "Ġlove": 2225,
      "Ġreduce": 2226,
      "rict": 2227,
      "Ġprote": 2228,
      "pe": 2229,
      "ann": 2230,
      "Ġtook": 2231,
      "Ġentire": 2232,
      "Ġsix": 2233,
      "like": 2234,
      "Ġaction": 2235,
      "rams": 2236,
      "16": 2237,
      "Ġservices": 2238,
      "Ġpen": 2239,
      "Ġitself": 2240,
      "Ġcheck": 2241,
      "Ġstress": 2242,
      "Ġstop": 2243,
      "Ġens": 2244,
      "yn": 2245,
      "Ġschools": 2246,
      "ĠâĢ¢": 2247,
      "Ġheav": 2248,
      "put": 2249,
      "Ġbur": 2250,
      "Ġability": 2251,
      "Ġcentral": 2252,
      "ask": 2253,
      "Ġthroughout": 2254,
      "oph": 2255,
      "onst": 2256,
      "Ġhol": 2257,
      "app": 2258,
      "Ġneeded": 2259,
      ".)": 2260,
      "Ġcomes": 2261,
      "Ġparts": 2262,
      "Ġarr": 2263,
      "Ġtar": 2264,
      "Ġox": 2265,
      "Ġpath": 2266,
      "Ġrelationship": 2267,
      "Ġcomplex": 2268,
      "ches": 2269,
      "Ġexperim": 2270,
      "Ġtaking": 2271,
      "Ġspir": 2272,
      "Ġvide": 2273,
      "xic": 2274,
      "Ġbegan": 2275,
      "Ġpriv": 2276,
      "Ġrecent": 2277,
      "ensive": 2278,
      "Ġdiv": 2279,
      "Ġsex": 2280,
      "ii": 2281,
      "Ġonline": 2282,
      "Ġrul": 2283,
      "ze": 2284,
      "Ġpict": 2285,
      "rated": 2286,
      "Ġapproach": 2287,
      "use": 2288,
      "Ġpurp": 2289,
      "Ġtrue": 2290,
      "Ġmeasure": 2291,
      "Ġforest": 2292,
      "sequ": 2293,
      "ched": 2294,
      "hib": 2295,
      "ply": 2296,
      "Ġstrateg": 2297,
      "Ġyork": 2298,
      "Ġcondition": 2299,
      "Ġregion": 2300,
      "Ġwood": 2301,
      "Ġmiss": 2302,
      "yl": 2303,
      "Ġprevious": 2304,
      "Ġmaterials": 2305,
      "Ġforce": 2306,
      "Ġanalysis": 2307,
      "rel": 2308,
      "aged": 2309,
      "Ġpersonal": 2310,
      "Ġweb": 2311,
      "Ġec": 2312,
      "Ġmonths": 2313,
      "Ġreact": 2314,
      "ump": 2315,
      "ese": 2316,
      "Ġtravel": 2317,
      "Ġmicro": 2318,
      "ivity": 2319,
      "Ġjud": 2320,
      "Ġavoid": 2321,
      "Ġsense": 2322,
      "Ġled": 2323,
      "Ġchemical": 2324,
      "Ġfeed": 2325,
      "Ġbritish": 2326,
      "Ġ197": 2327,
      "Ġmaint": 2328,
      "Ġbab": 2329,
      "14": 2330,
      "Ġho": 2331,
      "Ġclaim": 2332,
      "Ġmatter": 2333,
      "iding": 2334,
      "Ġpri": 2335,
      "Ġtotal": 2336,
      "Ġregard": 2337,
      "Ġclean": 2338,
      "gar": 2339,
      "Ġfem": 2340,
      "Ġthing": 2341,
      "Ġbuilt": 2342,
      "Ġrequired": 2343,
      "Ġsurv": 2344,
      "Ġfarm": 2345,
      "Ġjournal": 2346,
      "den": 2347,
      "ching": 2348,
      "lying": 2349,
      "dom": 2350,
      "Ġeat": 2351,
      "Ġsepar": 2352,
      "empt": 2353,
      "Ġgard": 2354,
      "Ġpattern": 2355,
      "tic": 2356,
      "Ġexperien": 2357,
      "Ġ100": 2358,
      "Ġsil": 2359,
      "Ġproduce": 2360,
      "ises": 2361,
      "Ġkids": 2362,
      "acc": 2363,
      "Ġwall": 2364,
      "Ġbehavior": 2365,
      "org": 2366,
      "Ġorigin": 2367,
      "itary": 2368,
      "Ġdou": 2369,
      "Ġpopular": 2370,
      "Ġbelieve": 2371,
      "vere": 2372,
      "Ġfru": 2373,
      "ctions": 2374,
      "ety": 2375,
      "Ġtechni": 2376,
      "ences": 2377,
      "Ġmess": 2378,
      "Ġcanad": 2379,
      "Ġpie": 2380,
      "ript": 2381,
      "erve": 2382,
      "Ġstandard": 2383,
      "rences": 2384,
      "Ġtraining": 2385,
      "Ġbreak": 2386,
      "Ġsleep": 2387,
      "Ġnight": 2388,
      "Ġfactors": 2389,
      "Ġmother": 2390,
      "Ġlives": 2391,
      "rate": 2392,
      "Ġinj": 2393,
      "Ġcommit": 2394,
      "Ġbooks": 2395,
      "Ġbring": 2396,
      "Ġshows": 2397,
      "Ġconc": 2398,
      "uel": 2399,
      "Ġcit": 2400,
      "Ġpage": 2401,
      "yle": 2402,
      "utes": 2403,
      "chan": 2404,
      "Ġprovides": 2405,
      "Ġmeaning": 2406,
      "Ġ--": 2407,
      "Ġinteract": 2408,
      "Ġjes": 2409,
      "Ġvit": 2410,
      "ront": 2411,
      "Ġdisord": 2412,
      "13": 2413,
      "Ġsimply": 2414,
      "Ġ196": 2415,
      "Ġrich": 2416,
      "Ġsafe": 2417,
      "apan": 2418,
      "ney": 2419,
      "Ġsoft": 2420,
      "Ġsaf": 2421,
      "Ġtherap": 2422,
      "uck": 2423,
      "Ġteachers": 2424,
      "Ġpoor": 2425,
      "Ġindepend": 2426,
      "Ġpark": 2427,
      "med": 2428,
      "Ġcolon": 2429,
      "urity": 2430,
      "Ġstructure": 2431,
      "usion": 2432,
      "Ġdiagn": 2433,
      "light": 2434,
      "Ġeth": 2435,
      "Ġlonger": 2436,
      "Ġ50": 2437,
      "Ġnecessary": 2438,
      "urs": 2439,
      "apt": 2440,
      "Ġincreasing": 2441,
      "Ġdoing": 2442,
      "Ġdeb": 2443,
      "Ġcontact": 2444,
      "Ġcontent": 2445,
      "Ġaccept": 2446,
      "ym": 2447,
      "Ġdeep": 2448,
      "Ġmiddle": 2449,
      "ows": 2450,
      "Ġindividuals": 2451,
      "Ġculture": 2452,
      "Ġviol": 2453,
      "Ġrepl": 2454,
      "Ġcauses": 2455,
      "estern": 2456,
      "Ġterms": 2457,
      "Ġmovement": 2458,
      "Ġfoods": 2459,
      "fully": 2460,
      "Ġtur": 2461,
      "erous": 2462,
      "Ġmach": 2463,
      "Ġhours": 2464,
      "iction": 2465,
      "Ġbasic": 2466,
      "bo": 2467,
      "Ġeasy": 2468,
      "Ġvict": 2469,
      "Ġcra": 2470,
      "reg": 2471,
      "Ġ25": 2472,
      "Ġimage": 2473,
      "Ġlack": 2474,
      "Ġposition": 2475,
      "Ġdefin": 2476,
      "aging": 2477,
      "Ġcaused": 2478,
      "Ġetc": 2479,
      "Ġaverage": 2480,
      "Ġcross": 2481,
      "Ġpositive": 2482,
      "Ġgreater": 2483,
      "Ġlif": 2484,
      "Ġheat": 2485,
      "Ġlog": 2486,
      "Ġwritten": 2487,
      "Ġnation": 2488,
      "Ġvisit": 2489,
      "amed": 2490,
      "Ġexc": 2491,
      "wa": 2492,
      "Ġhttp": 2493,
      "Ġconnect": 2494,
      "\".": 2495,
      "Ġconduct": 2496,
      "Ġindustry": 2497,
      "Ġadmin": 2498,
      "Ġvari": 2499,
      "Ġtax": 2500,
      "based": 2501,
      "Ġtown": 2502,
      "Ġanimal": 2503,
      "Ġjapan": 2504,
      "Ġencoura": 2505,
      "Ġslow": 2506,
      "rought": 2507,
      "Ġpal": 2508,
      "Ġclin": 2509,
      "ush": 2510,
      "Ġissue": 2511,
      "Ġeast": 2512,
      "Ġlabor": 2513,
      "Ġbacter": 2514,
      "ores": 2515,
      "Ġnote": 2516,
      "Ġhor": 2517,
      "Ġnetwork": 2518,
      "izing": 2519,
      "rown": 2520,
      "Ġshown": 2521,
      "onse": 2522,
      "hood": 2523,
      "pro": 2524,
      "ume": 2525,
      "Ġbenefits": 2526,
      "ister": 2527,
      "utions": 2528,
      "):": 2529,
      "Ġmedia": 2530,
      "Ġsafety": 2531,
      "ronic": 2532,
      "aily": 2533,
      "mb": 2534,
      "Ġcourt": 2535,
      "Ġcontain": 2536,
      "Ġhyd": 2537,
      "Ġpoll": 2538,
      "rench": 2539,
      "anced": 2540,
      "--": 2541,
      "Ġdesigned": 2542,
      "Ġten": 2543,
      "Ġlate": 2544,
      "reng": 2545,
      "oint": 2546,
      "Ġspread": 2547,
      "Ġreported": 2548,
      "Ġdepartment": 2549,
      "Ġcarbon": 2550,
      "Ġideas": 2551,
      "Ġmechan": 2552,
      "Ġtree": 2553,
      "Ġfather": 2554,
      "know": 2555,
      "Ġshare": 2556,
      "Ġemerg": 2557,
      "Ġdraw": 2558,
      "Ġpolicy": 2559,
      "Ġsqu": 2560,
      "Ġsurve": 2561,
      "Ġthird": 2562,
      "Ġoutside": 2563,
      "hold": 2564,
      "Ġ,": 2565,
      "Ġoriginal": 2566,
      "Ġregular": 2567,
      "Ġroad": 2568,
      "Ġindia": 2569,
      "Ġtend": 2570,
      "Ġjesus": 2571,
      "Ġtemperature": 2572,
      "Ġactive": 2573,
      "Ġattempt": 2574,
      "Ġevents": 2575,
      "Ġseries": 2576,
      "Ġtheory": 2577,
      "Ġprec": 2578,
      "Ġrelative": 2579,
      "Ġ194": 2580,
      "Ġnormal": 2581,
      "Ġwalk": 2582,
      "Ġthreat": 2583,
      "Ġfeet": 2584,
      "Ġprovided": 2585,
      "view": 2586,
      "Ġaug": 2587,
      "Ġcapt": 2588,
      "rs": 2589,
      "Ġmagn": 2590,
      "Ġelectric": 2591,
      "Ġresponse": 2592,
      "room": 2593,
      "Ġtri": 2594,
      "Ġspirit": 2595,
      "Ġselect": 2596,
      "Ġconstit": 2597,
      "Ġgenerally": 2598,
      "Ġcompet": 2599,
      "Ġemb": 2600,
      "Ġprobably": 2601,
      "Ġdeal": 2602,
      "asc": 2603,
      "Ġson": 2604,
      "Ġveget": 2605,
      "abet": 2606,
      "Ġdaily": 2607,
      "ials": 2608,
      "Ġresist": 2609,
      "imately": 2610,
      "Ġincludes": 2611,
      "Ġlooking": 2612,
      "umb": 2613,
      "Ġcontinue": 2614,
      "Ġstreng": 2615,
      "book": 2616,
      "Ġfederal": 2617,
      "alu": 2618,
      "Ġprograms": 2619,
      "Ġprint": 2620,
      "Ġconserv": 2621,
      "Ġwebs": 2622,
      "Ġmethods": 2623,
      "Ġgetting": 2624,
      "Ġrespect": 2625,
      "Ġcard": 2626,
      "astic": 2627,
      "ropri": 2628,
      "ength": 2629,
      "Ġschol": 2630,
      "Ġdeveloping": 2631,
      "ricult": 2632,
      "Ġwrite": 2633,
      "Ġgrowing": 2634,
      "Ġuses": 2635,
      "imin": 2636,
      "aff": 2637,
      "Ġinteg": 2638,
      "Ġancient": 2639,
      "ulations": 2640,
      "Ġemp": 2641,
      "Ġsolar": 2642,
      "Ġtarget": 2643,
      "Ġbirth": 2644,
      "Ġinvolved": 2645,
      "Ġserious": 2646,
      "Ġteaching": 2647,
      "Ġcollege": 2648,
      "Ġsources": 2649,
      "wor": 2650,
      "ana": 2651,
      "ades": 2652,
      "Ġnumbers": 2653,
      "ament": 2654,
      "Ġcompan": 2655,
      "Ã©": 2656,
      "Ġemot": 2657,
      "Ġsyn": 2658,
      "Ġscientific": 2659,
      "Ġaustral": 2660,
      "Ġsust": 2661,
      "Ġadminist": 2662,
      "Ġbad": 2663,
      "Ġnort": 2664,
      "Ġsn": 2665,
      "Ġexpress": 2666,
      "Ġattention": 2667,
      "Ġagricult": 2668,
      "uge": 2669,
      "olic": 2670,
      "Ġextreme": 2671,
      "che": 2672,
      "Ġang": 2673,
      "adem": 2674,
      "oses": 2675,
      "istics": 2676,
      "arily": 2677,
      "Ġsomeone": 2678,
      "Ġaud": 2679,
      "Ġdispl": 2680,
      "Ġleaders": 2681,
      "Ġforms": 2682,
      "ached": 2683,
      "Ġchina": 2684,
      "lex": 2685,
      "ns": 2686,
      "Ġdemonst": 2687,
      "iam": 2688,
      "Ġdoesn": 2689,
      "ales": 2690,
      "Ġanswer": 2691,
      "overed": 2692,
      "Ġsold": 2693,
      "Ġparticularly": 2694,
      "Ġago": 2695,
      "Ġscre": 2696,
      "ief": 2697,
      "uth": 2698,
      "idge": 2699,
      "ucle": 2700,
      "Ġsan": 2701,
      "Ġbud": 2702,
      "Ġpan": 2703,
      "Ġvariety": 2704,
      "Ġrefer": 2705,
      "Ġidentify": 2706,
      "Ġquite": 2707,
      "Ġanti": 2708,
      "Ġspeak": 2709,
      "Ġeye": 2710,
      "itation": 2711,
      "Ġincluded": 2712,
      "Ġ*": 2713,
      "Ġtable": 2714,
      "Ġcorrect": 2715,
      "ops": 2716,
      "rad": 2717,
      "Ġdamage": 2718,
      "Ġaltern": 2719,
      "ban": 2720,
      "aries": 2721,
      "Ġthous": 2722,
      "Ġproduced": 2723,
      "Ġgold": 2724,
      "Ġvideo": 2725,
      "ners": 2726,
      "ai": 2727,
      "Ġinside": 2728,
      "Ġrock": 2729,
      "haps": 2730,
      "oles": 2731,
      "Ġreach": 2732,
      "cil": 2733,
      "Ġtakes": 2734,
      "Ġprogress": 2735,
      "Ġsus": 2736,
      "Ġmanu": 2737,
      "Ġoce": 2738,
      "Ġmilitary": 2739,
      "Ġhelps": 2740,
      "Ġdecl": 2741,
      "Ġbit": 2742,
      "Ġprimary": 2743,
      "Ġinternet": 2744,
      "Ġhumans": 2745,
      "rary": 2746,
      "Ġsoon": 2747,
      "Ġassist": 2748,
      "Ġtrees": 2749,
      "Ġappl": 2750,
      "Ġstarted": 2751,
      "Ġdrink": 2752,
      "Ġprep": 2753,
      "Ġestim": 2754,
      "Ġden": 2755,
      "Ġfav": 2756,
      "Ġwestern": 2757,
      "gress": 2758,
      "ius": 2759,
      "Ġacadem": 2760,
      "Ġfrench": 2761,
      "Ġmedicine": 2762,
      "Ġwent": 2763,
      "Ġdang": 2764,
      "rast": 2765,
      "Ġmanufact": 2766,
      "ground": 2767,
      "Ġwa": 2768,
      "ror": 2769,
      "Ġ24": 2770,
      "Ġcover": 2771,
      "Ġtraditional": 2772,
      "Ġ/": 2773,
      "Ġburn": 2774,
      "where": 2775,
      "Ġexercise": 2776,
      "Ġinvestig": 2777,
      "Ġbul": 2778,
      "ying": 2779,
      "Ġinn": 2780,
      "Ġsecurity": 2781,
      "Ġcoast": 2782,
      "Ġfront": 2783,
      "Ġvirus": 2784,
      "Ġdiseases": 2785,
      "Ġfoot": 2786,
      "Ġbeginning": 2787,
      "osition": 2788,
      "Ġadded": 2789,
      "itude": 2790,
      "Ġnar": 2791,
      "bor": 2792,
      "Ġchap": 2793,
      "Ġtit": 2794,
      "ha": 2795,
      "atives": 2796,
      "Ġconsist": 2797,
      "Ġbase": 2798,
      "Ġpatient": 2799,
      "Ġteacher": 2800,
      "Ġfight": 2801,
      "Ġmarch": 2802,
      "eration": 2803,
      "ging": 2804,
      "ster": 2805,
      "Ġperhaps": 2806,
      "Ġreve": 2807,
      "Ġful": 2808,
      "elling": 2809,
      "Ġlord": 2810,
      "Ġsearch": 2811,
      "Ġhen": 2812,
      "Ġhot": 2813,
      "Ġconcent": 2814,
      "Ġbehind": 2815,
      "Ġdesp": 2816,
      "Ġcompon": 2817,
      "Ġstar": 2818,
      "Ġeuropean": 2819,
      "Ġshall": 2820,
      "omet": 2821,
      "ems": 2822,
      "ino": 2823,
      "Ġpoints": 2824,
      "aches": 2825,
      "Ġcompared": 2826,
      "Ġeasily": 2827,
      "ee": 2828,
      "Ġsection": 2829,
      "Ġdark": 2830,
      "www": 2831,
      "Ġ40": 2832,
      "osing": 2833,
      "ension": 2834,
      "ography": 2835,
      "Ġmultiple": 2836,
      "Ġdifference": 2837,
      "Ġgot": 2838,
      "Ġimmedi": 2839,
      "Ġenj": 2840,
      "Ġacid": 2841,
      "Ġheld": 2842,
      "Ġjan": 2843,
      "Ġreflect": 2844,
      "Ġthinking": 2845,
      "Ġexce": 2846,
      "Ġinstitute": 2847,
      "Ġlarger": 2848,
      "Ġdry": 2849,
      "Ġseems": 2850,
      "Ġfamilies": 2851,
      "bre": 2852,
      "ques": 2853,
      "Ġadditional": 2854,
      "Ġrout": 2855,
      "ogle": 2856,
      "undred": 2857,
      "Ġpack": 2858,
      "Ġcust": 2859,
      "Ġprior": 2860,
      "Ġdocument": 2861,
      "Ġimplement": 2862,
      "Ġborn": 2863,
      "ellow": 2864,
      "imum": 2865,
      "Ġessential": 2866,
      "Ġbroad": 2867,
      "val": 2868,
      "inary": 2869,
      "Ġrob": 2870,
      "Ġimages": 2871,
      "rael": 2872,
      "Ġremember": 2873,
      "ancy": 2874,
      "Ġchalleng": 2875,
      "Ġban": 2876,
      "Ġlost": 2877,
      "Ġnucle": 2878,
      "rial": 2879,
      "Ġstay": 2880,
      "Ġgree": 2881,
      "Ġwashing": 2882,
      "uk": 2883,
      "Ġhope": 2884,
      "Ġevalu": 2885,
      "ims": 2886,
      "osure": 2887,
      "ively": 2888,
      "Ġcred": 2889,
      "Ġult": 2890,
      "oll": 2891,
      "Ġfit": 2892,
      "Ġdecre": 2893,
      "Ġextra": 2894,
      "Ġelse": 2895,
      "Ġafrica": 2896,
      "Ġappropri": 2897,
      "fect": 2898,
      "Ġfigure": 2899,
      "Ġfram": 2900,
      "Ġsav": 2901,
      "Ġhundred": 2902,
      "isc": 2903,
      "Ġcalif": 2904,
      "Ġprotection": 2905,
      "Ġestablished": 2906,
      "25": 2907,
      "Ġoct": 2908,
      "Ġmom": 2909,
      "see": 2910,
      "Ġhabit": 2911,
      "Ġtools": 2912,
      "Ġfinanc": 2913,
      "Ġimag": 2914,
      "Ġgame": 2915,
      "Ġhands": 2916,
      "Ġfriends": 2917,
      "Ġnearly": 2918,
      "asons": 2919,
      "ribution": 2920,
      "Ġindian": 2921,
      "Ġhighly": 2922,
      "Ġdetermine": 2923,
      "Ġmuse": 2924,
      "Ġachieve": 2925,
      "Ġoffice": 2926,
      "Ġcommunities": 2927,
      "oration": 2928,
      "Ġplease": 2929,
      "Ġtiss": 2930,
      "Ġvacc": 2931,
      "Ġnative": 2932,
      "bert": 2933,
      "Ġsummer": 2934,
      "Ġtold": 2935,
      "Ġhost": 2936,
      "Ġassociation": 2937,
      "Ġsymb": 2938,
      "Ġdav": 2939,
      "ille": 2940,
      "Ġsugar": 2941,
      "Ġdiabet": 2942,
      "Ġ2010": 2943,
      "Ġfast": 2944,
      "amp": 2945,
      "Ġexamples": 2946,
      "Ġrap": 2947,
      "Ġruss": 2948,
      "Ġdoctor": 2949,
      "isions": 2950,
      "Ġgerman": 2951,
      "âĢĿ.": 2952,
      "Ġhosp": 2953,
      "Ġfort": 2954,
      "ift": 2955,
      "Ġhun": 2956,
      "Ġdead": 2957,
      "Ġquickly": 2958,
      "ounds": 2959,
      "Ġneu": 2960,
      "Ġstri": 2961,
      "Ġnothing": 2962,
      "Ġcommand": 2963,
      "Ġcold": 2964,
      "Ġensure": 2965,
      "do": 2966,
      "Ġprofessor": 2967,
      "Ġexpect": 2968,
      "hol": 2969,
      "gn": 2970,
      "Ġchristian": 2971,
      "Ġenjoy": 2972,
      "Ġice": 2973,
      "Ġapr": 2974,
      "Ġcapital": 2975,
      "Ġfib": 2976,
      "Ġcaliforn": 2977,
      "Ġperformance": 2978,
      "Ġeating": 2979,
      "Ġq": 2980,
      "Ġtowards": 2981,
      "Ġhimself": 2982,
      "Ġ2012": 2983,
      "Ġinteresting": 2984,
      "Ġunique": 2985,
      "Ġmemory": 2986,
      "Ġprotein": 2987,
      "Ġreligious": 2988,
      "Ġexcept": 2989,
      "Ġhon": 2990,
      "Ġmel": 2991,
      "Ġfra": 2992,
      "Ġmuseum": 2993,
      "Ġsevere": 2994,
      "eding": 2995,
      "Ġnegative": 2996,
      "Ġafrican": 2997,
      "Ġquant": 2998,
      "Ġcounty": 2999,
      "Ġlength": 3000,
      "Ġunion": 3001,
      "Ġarmy": 3002,
      "Ġii": 3003,
      "Ġmental": 3004,
      "Ġmos": 3005,
      "uary": 3006,
      "Ġisrael": 3007,
      "Ġsept": 3008,
      "Ġbeaut": 3009,
      "Ġtransport": 3010,
      "Ġmag": 3011,
      "Ġrecently": 3012,
      "thern": 3013,
      "Ġeverything": 3014,
      "Ġagree": 3015,
      "Ġaugust": 3016,
      "Ġminutes": 3017,
      "Ġlaws": 3018,
      "Ġoffer": 3019,
      "rection": 3020,
      "icien": 3021,
      "hern": 3022,
      "Ġwhose": 3023,
      "Ġphilos": 3024,
      "Ġfair": 3025,
      "Ġinfection": 3026,
      "Ġcompanies": 3027,
      "Ġwaste": 3028,
      "Ġadults": 3029,
      "Ġcritical": 3030,
      "Ġmax": 3031,
      "Ġdirectly": 3032,
      "Ġbrought": 3033,
      "Ġcool": 3034,
      "lier": 3035,
      "Ġbank": 3036,
      "back": 3037,
      "outh": 3038,
      "Ġmac": 3039,
      "Ġcitiz": 3040,
      "head": 3041,
      "Ġ2011": 3042,
      "Ġallows": 3043,
      "ream": 3044,
      "Ġblue": 3045,
      "Ġsaw": 3046,
      "ura": 3047,
      "Ġpurpose": 3048,
      "yond": 3049,
      "Ġcalifornia": 3050,
      "Ġtrade": 3051,
      "Ġones": 3052,
      "ties": 3053,
      "Ġuseful": 3054,
      "overy": 3055,
      "Ġmole": 3056,
      "Ġcou": 3057,
      "Ġgir": 3058,
      "Ġinterp": 3059,
      "cies": 3060,
      "inks": 3061,
      "Ġplaces": 3062,
      "Ġdiabetes": 3063,
      "Ġtransl": 3064,
      "Ġlimited": 3065,
      "Ġ21": 3066,
      "gy": 3067,
      "uries": 3068,
      "Ġsituation": 3069,
      "Ġcele": 3070,
      "Ġeveryone": 3071,
      "Ġaspect": 3072,
      "Ġeyes": 3073,
      "Ġvalues": 3074,
      "Ġboard": 3075,
      "Ġdied": 3076,
      "bl": 3077,
      "Ġsen": 3078,
      "Ġstandards": 3079,
      "Ġanything": 3080,
      "Ġnav": 3081,
      "Ġleaves": 3082,
      "Ġprivate": 3083,
      "Ġegg": 3084,
      "Ġamericans": 3085,
      "Ġleading": 3086,
      "Ġlargest": 3087,
      "Ġbeyond": 3088,
      "Ġcurrently": 3089,
      "Ġsupply": 3090,
      "oes": 3091,
      "Ġfear": 3092,
      "Ġtex": 3093,
      "Ġinfluence": 3094,
      "Ġexact": 3095,
      "Ġfeatures": 3096,
      "rote": 3097,
      "Ġroom": 3098,
      "Ġfinally": 3099,
      "Ġorganization": 3100,
      "'re": 3101,
      "Ġengland": 3102,
      "ender": 3103,
      "Ġcode": 3104,
      "Ġclick": 3105,
      "ulate": 3106,
      "Ġmis": 3107,
      "Ġspeed": 3108,
      "wise": 3109,
      "fl": 3110,
      "Ġjune": 3111,
      "Ġhyp": 3112,
      "Ġconsequ": 3113,
      "Ġanaly": 3114,
      "Ġplanet": 3115,
      "Ġhistorical": 3116,
      "Ġsolution": 3117,
      "Ġpow": 3118,
      "Ġpeace": 3119,
      "Ġdespite": 3120,
      "itis": 3121,
      "Ġsustain": 3122,
      "ils": 3123,
      "Ġcreating": 3124,
      "Ġcarry": 3125,
      "ham": 3126,
      "uff": 3127,
      "Ġbott": 3128,
      "Ġflo": 3129,
      "Ġworkers": 3130,
      "Ġgarden": 3131,
      "Ġbehavi": 3132,
      "Ġmix": 3133,
      "Ġunf": 3134,
      "Ġconstant": 3135,
      "Ġwebsite": 3136,
      "Ġcontains": 3137,
      "rition": 3138,
      "oring": 3139,
      "sp": 3140,
      "Ġcultural": 3141,
      "Ġlines": 3142,
      "Ġ2013": 3143,
      "Ġparty": 3144,
      "Ġobt": 3145,
      "Ġder": 3146,
      "Ġweeks": 3147,
      "Ġocean": 3148,
      "Ġdate": 3149,
      "oming": 3150,
      "ublic": 3151,
      "Ġelements": 3152,
      "Ġproced": 3153,
      "Ġrare": 3154,
      "Ġinfect": 3155,
      "Ġball": 3156,
      "Ġvo": 3157,
      "Ġfreed": 3158,
      "Ġcontribut": 3159,
      "Ġforces": 3160,
      "Ġwoman": 3161,
      "Ġsouthern": 3162,
      "pper": 3163,
      "Ġkill": 3164,
      "Ġhous": 3165,
      "Ġspring": 3166,
      "water": 3167,
      "iers": 3168,
      "Ġfinal": 3169,
      "Ġapril": 3170,
      "inct": 3171,
      "Ġdisp": 3172,
      "Ġcook": 3173,
      "Ġwilliam": 3174,
      "Ġ:": 3175,
      "Ġreceived": 3176,
      "Ġasked": 3177,
      "Ġcommunication": 3178,
      "Ġlocated": 3179,
      "Ġswe": 3180,
      "Ġrain": 3181,
      "year": 3182,
      "Ġstru": 3183,
      "Ġwinter": 3184,
      "arm": 3185,
      "Ġjuly": 3186,
      "iot": 3187,
      "yr": 3188,
      "____": 3189,
      "Ġgradu": 3190,
      "Ġnations": 3191,
      "Ġbattle": 3192,
      "king": 3193,
      "Ġgives": 3194,
      "Ġseason": 3195,
      "ford": 3196,
      "Ġstage": 3197,
      "inese": 3198,
      "Ġnorthern": 3199,
      "Ġguide": 3200,
      "Ġbecomes": 3201,
      "Ġsites": 3202,
      "Ġgoal": 3203,
      "Ġhydro": 3204,
      "hic": 3205,
      "Ġchoose": 3206,
      "Ġbacteria": 3207,
      "used": 3208,
      "Ġmap": 3209,
      "Ġrates": 3210,
      "Ġuk": 3211,
      "Ġhom": 3212,
      "Ġvirt": 3213,
      "Ġadop": 3214,
      "Ġtypically": 3215,
      "Ġestablish": 3216,
      "Ġcanada": 3217,
      "hel": 3218,
      "Ġdece": 3219,
      "Ġvill": 3220,
      "isms": 3221,
      "Ġadapt": 3222,
      "fort": 3223,
      "Ġimportance": 3224,
      "cks": 3225,
      "aught": 3226,
      "fs": 3227,
      "Ġcrop": 3228,
      "Ġsac": 3229,
      "Ġpregn": 3230,
      "Ġrespond": 3231,
      "Ġwond": 3232,
      "Ġdecision": 3233,
      "Ġmiles": 3234,
      "Ġremain": 3235,
      "odies": 3236,
      "Ġremains": 3237,
      "Ġprojects": 3238,
      "Ġpoly": 3239,
      "ama": 3240,
      "estic": 3241,
      "Ġdemand": 3242,
      "Ġdescribed": 3243,
      "aces": 3244,
      "Ġinsp": 3245,
      "Ġcast": 3246,
      "Ġmention": 3247,
      "ext": 3248,
      "Ġwashington": 3249,
      "Ġcapac": 3250,
      "ields": 3251,
      "Ġaccom": 3252,
      "40": 3253,
      "idents": 3254,
      "Ġmer": 3255,
      "term": 3256,
      "Ġexec": 3257,
      "ech": 3258,
      "Ġsurround": 3259,
      "pped": 3260,
      "Ġtele": 3261,
      "Ġtests": 3262,
      "Ġolder": 3263,
      "oke": 3264,
      "vant": 3265,
      "Ġfaith": 3266,
      "Ġremo": 3267,
      "Ġrevolution": 3268,
      "Ġ2009": 3269,
      "ription": 3270,
      "cles": 3271,
      "Ġleave": 3272,
      "Ġsurvey": 3273,
      "Ġapplication": 3274,
      "Ġweather": 3275,
      "ira": 3276,
      "ont": 3277,
      "what": 3278,
      "Ġconflic": 3279,
      "Ġsoftware": 3280,
      "Ġcosts": 3281,
      "Ġdigital": 3282,
      "Ġinstall": 3283,
      "Ġproperty": 3284,
      "Ġblock": 3285,
      "Ġ2014": 3286,
      "Ġrule": 3287,
      "Ġappropriate": 3288,
      "Ġcontinu": 3289,
      "Ġcalcul": 3290,
      "Ġfres": 3291,
      "Ġunit": 3292,
      "Ġeight": 3293,
      "Ġgene": 3294,
      "Ġchinese": 3295,
      "Ġtesting": 3296,
      "Ġappe": 3297,
      "Ġfinancial": 3298,
      "ondon": 3299,
      "iciency": 3300,
      "Ġearlier": 3301,
      "Ġadj": 3302,
      "Ġspan": 3303,
      "Ġrat": 3304,
      "Ġdiscovered": 3305,
      "Ġdevices": 3306,
      "Ġtrying": 3307,
      "60": 3308,
      "come": 3309,
      "Ġrapid": 3310,
      "Ġalco": 3311,
      "Ġbirds": 3312,
      "Ġbeg": 3313,
      "Ġdrugs": 3314,
      "Ġroman": 3315,
      "Ġfruit": 3316,
      "Ġiron": 3317,
      "Ġ22": 3318,
      "Ġcamp": 3319,
      "ara": 3320,
      "ulated": 3321,
      "can": 3322,
      "life": 3323,
      "mission": 3324,
      "mer": 3325,
      "aling": 3326,
      "Ġbasis": 3327,
      "Ġgrand": 3328,
      "set": 3329,
      "Ġ2015": 3330,
      "Ġrequires": 3331,
      "cra": 3332,
      "Ġapprox": 3333,
      "Ġtherapy": 3334,
      "Ġconstruction": 3335,
      "Ġvehic": 3336,
      "Ġfuel": 3337,
      "Ġgoes": 3338,
      "Ġdidn": 3339,
      "this": 3340,
      "Ġtruth": 3341,
      "lled": 3342,
      "Ġwrote": 3343,
      "sec": 3344,
      "istry": 3345,
      "entially": 3346,
      "Ġcouncil": 3347,
      "Ġpicture": 3348,
      "Ġcustom": 3349,
      "Ġvitamin": 3350,
      "Ġcru": 3351,
      "Ġopportunity": 3352,
      "rest": 3353,
      "Ġsand": 3354,
      "Ġâ": 3355,
      "Ġefforts": 3356,
      "hens": 3357,
      "Ġ+": 3358,
      "Ġrise": 3359,
      "Ġvisual": 3360,
      "Ġrules": 3361,
      "issions": 3362,
      "Ġoverall": 3363,
      "Ġmonitor": 3364,
      "Ġoccup": 3365,
      "Ġjoint": 3366,
      "Ġdestro": 3367,
      "Ġlegal": 3368,
      "Ġmember": 3369,
      "Ġbreat": 3370,
      "Ġnamed": 3371,
      "equ": 3372,
      "bur": 3373,
      "80": 3374,
      "Ġrepe": 3375,
      "Ġenter": 3376,
      "Ġsmaller": 3377,
      "Ġillust": 3378,
      "Ġwon": 3379,
      "Ġalone": 3380,
      "Ġcoming": 3381,
      "Ġclassroom": 3382,
      "sect": 3383,
      "iples": 3384,
      "Ġdemoc": 3385,
      "Ġsecret": 3386,
      "arian": 3387,
      "ula": 3388,
      "Ġmilk": 3389,
      "enge": 3390,
      "Ġcities": 3391,
      "Ġreasons": 3392,
      "Ġisn": 3393,
      "Ġeconomy": 3394,
      "Ġforeign": 3395,
      "bi": 3396,
      "Ġevolution": 3397,
      "ste": 3398,
      "Ġprofessional": 3399,
      "Ġexpected": 3400,
      "Ġgave": 3401,
      "Ġguid": 3402,
      "Ġexposure": 3403,
      "aly": 3404,
      "Ġconvent": 3405,
      ".;": 3406,
      "Ġneigh": 3407,
      "Ġ23": 3408,
      "Ġfollowed": 3409,
      "Ġtechniques": 3410,
      "Ġcompar": 3411,
      "Ġhit": 3412,
      "nes": 3413,
      "Ġnutrition": 3414,
      "uments": 3415,
      "Ġbrown": 3416,
      "cont": 3417,
      "Ġmath": 3418,
      "iest": 3419,
      "Ġscale": 3420,
      "Ġfoundation": 3421,
      "Ġcompletely": 3422,
      "ologies": 3423,
      "itect": 3424,
      "Ġsymbol": 3425,
      "aled": 3426,
      "Ġformer": 3427,
      "ously": 3428,
      "izes": 3429,
      "Ġadvant": 3430,
      "Ġbenefit": 3431,
      "Ġbox": 3432,
      "Ġsett": 3433,
      "Ġbaby": 3434,
      "Ġshape": 3435,
      "Ġmig": 3436,
      "ober": 3437,
      "Ġgenetic": 3438,
      "Ġperfect": 3439,
      "iar": 3440,
      "Ġdifferences": 3441,
      "Ġlocation": 3442,
      "Ġresponsible": 3443,
      "oud": 3444,
      "Ġfeb": 3445,
      "Ġeventually": 3446,
      "Ġ2008": 3447,
      "Ġstrength": 3448,
      "omy": 3449,
      "Ġsuccessful": 3450,
      "Ġlondon": 3451,
      "Ġstories": 3452,
      "oon": 3453,
      "isl": 3454,
      "Ġobjects": 3455,
      "Ġdepend": 3456,
      "Ġcollection": 3457,
      "cious": 3458,
      "Ġdeli": 3459,
      "Ġmob": 3460,
      "Ġvia": 3461,
      "Ġdegree": 3462,
      "Ġyourself": 3463,
      "iles": 3464,
      "Ġcateg": 3465,
      "Ġtou": 3466,
      "Ġtrib": 3467,
      "Ġequip": 3468,
      "22": 3469,
      "Ġexplain": 3470,
      "Ġautom": 3471,
      "Ġfemale": 3472,
      "time": 3473,
      "Ġclinical": 3474,
      "Ġprocesses": 3475,
      "Ġdevice": 3476,
      "Ġarchitect": 3477,
      "load": 3478,
      "Ġ2016": 3479,
      "Ġreceive": 3480,
      "lin": 3481,
      "Ġlibrary": 3482,
      "Ġalcohol": 3483,
      "Ġsequ": 3484,
      "Ġpractices": 3485,
      "Ġpurch": 3486,
      "Ġallowed": 3487,
      "Ġpick": 3488,
      "eed": 3489,
      "Ġaffected": 3490,
      "Ġversion": 3491,
      "Ġatm": 3492,
      "Ġdie": 3493,
      "Ġapplications": 3494,
      "Ġfile": 3495,
      "Ġseptember": 3496,
      "Ġpowerful": 3497,
      "Ġeducational": 3498,
      "Ġbillion": 3499,
      "Ġmexic": 3500,
      "Ġrepublic": 3501,
      "Ġapplied": 3502,
      "Ġcommerc": 3503,
      "Ġtask": 3504,
      "Ġharm": 3505,
      "hest": 3506,
      "Ġ60": 3507,
      "eter": 3508,
      "Ġgal": 3509,
      "Ġdu": 3510,
      "Ġdyn": 3511,
      "Ġmoving": 3512,
      "Ġelectr": 3513,
      "Ġconstitution": 3514,
      "Ġfresh": 3515,
      "Ġframe": 3516,
      "izations": 3517,
      "Ġstatus": 3518,
      "Ġmut": 3519,
      "Ġinstru": 3520,
      "Ġplaced": 3521,
      "à¤": 3522,
      "Ġnames": 3523,
      "Ġdisplay": 3524,
      "Ġteeth": 3525,
      "Ġseven": 3526,
      "ta": 3527,
      "Ġmission": 3528,
      "Ġpun": 3529,
      "Ġcontinued": 3530,
      "Ġmajority": 3531,
      "ought": 3532,
      "ibly": 3533,
      "Ġoccurs": 3534,
      "Ġmale": 3535,
      "Ġstyle": 3536,
      "Ġantib": 3537,
      "Ġcongress": 3538,
      "hab": 3539,
      "Ġprice": 3540,
      "Ġpredict": 3541,
      "Ġeffort": 3542,
      "Ġtrust": 3543,
      "Ġconservation": 3544,
      "Ġjanuary": 3545,
      "Ġsigns": 3546,
      "Ġiniti": 3547,
      "Ġtrack": 3548,
      "Ġspect": 3549,
      "Ġrecommend": 3550,
      "Ġacqu": 3551,
      "Ġdoct": 3552,
      "Ġwrong": 3553,
      "Ġchronic": 3554,
      "Ġproviding": 3555,
      "erson": 3556,
      "Ġdna": 3557,
      "ince": 3558,
      "Ġworth": 3559,
      "iful": 3560,
      "Ġshowed": 3561,
      "Ġreduced": 3562,
      "Ġelement": 3563,
      "itable": 3564,
      "Ġchoice": 3565,
      "rates": 3566,
      "pan": 3567,
      "edia": 3568,
      "Ġpiece": 3569,
      "mat": 3570,
      "24": 3571,
      ");": 3572,
      "Ġtro": 3573,
      "Ġunivers": 3574,
      "Ġfreedom": 3575,
      "rees": 3576,
      "Ġgiving": 3577,
      "gra": 3578,
      "tery": 3579,
      "Ġbreast": 3580,
      "Ġatmosp": 3581,
      "Ġusers": 3582,
      "Ġconver": 3583,
      "Ġmathem": 3584,
      "Ġdomin": 3585,
      "ogen": 3586,
      "Ġfriend": 3587,
      "Ġoctober": 3588,
      "Ġstaff": 3589,
      "Ġequipment": 3590,
      "Ġnotes": 3591,
      "Ġassign": 3592,
      "Ġurban": 3593,
      "men": 3594,
      "Ġ2007": 3595,
      "craft": 3596,
      "Ġque": 3597,
      "Ġord": 3598,
      "Ġformed": 3599,
      "Ġtransform": 3600,
      "Ġmodels": 3601,
      "Ġreports": 3602,
      "erate": 3603,
      "Ġfrance": 3604,
      "Ġassum": 3605,
      "Ġdepression": 3606,
      "wide": 3607,
      "Ġchanged": 3608,
      "Ġlimit": 3609,
      "Ġcand": 3610,
      "Ġthousands": 3611,
      "Ġstim": 3612,
      "Ġenh": 3613,
      "Ġcitizens": 3614,
      "Ġsurpr": 3615,
      "orge": 3616,
      "Ġdut": 3617,
      "Ġsteps": 3618,
      "Ġpresence": 3619,
      "Ġcommonly": 3620,
      "Ġmaintain": 3621,
      "Ġmoment": 3622,
      "known": 3623,
      "Ġjewish": 3624,
      "ellig": 3625,
      "Ġactions": 3626,
      "Ġincor": 3627,
      "Ġcontext": 3628,
      "Ġgermany": 3629,
      "Ġbed": 3630,
      "enty": 3631,
      "Ġforward": 3632,
      "Ġworked": 3633,
      "Ġ193": 3634,
      "Ġnas": 3635,
      "Ġrunning": 3636,
      "Ġpatterns": 3637,
      "Ġreb": 3638,
      "Ġmeasures": 3639,
      "Ġspeech": 3640,
      "Ġdistance": 3641,
      "Ġnuclear": 3642,
      "Ġengineering": 3643,
      "23": 3644,
      "Ġcore": 3645,
      "Ġroot": 3646,
      "Ġappears": 3647,
      "Ġhop": 3648,
      "Ġconstruct": 3649,
      "Ġgeneration": 3650,
      "Ġsave": 3651,
      "Ġhuge": 3652,
      "Ġphilosop": 3653,
      "Ġvision": 3654,
      "Ġcelebr": 3655,
      "cial": 3656,
      "ken": 3657,
      "Ġfindings": 3658,
      "Ġchance": 3659,
      "Ġlaun": 3660,
      "Ġassessment": 3661,
      "itch": 3662,
      "su": 3663,
      "Ġequal": 3664,
      "rim": 3665,
      "Ġbelieved": 3666,
      "Ġrot": 3667,
      "Ġhair": 3668,
      "Ġplanning": 3669,
      "Ġwel": 3670,
      "amic": 3671,
      "Ġgar": 3672,
      "Ġessay": 3673,
      "ero": 3674,
      "gypt": 3675,
      "iny": 3676,
      "Ġinnov": 3677,
      "Ġcath": 3678,
      "Ġfel": 3679,
      "Ġincreases": 3680,
      "Ġegypt": 3681,
      "Ġpromot": 3682,
      "Ġlearned": 3683,
      "Ġalternative": 3684,
      "Ġdecember": 3685,
      "Ġweak": 3686,
      "Ġmuscle": 3687,
      "Ġdirector": 3688,
      "Ġreality": 3689,
      "Ġgenes": 3690,
      "ship": 3691,
      "Ġpul": 3692,
      "Ġexplore": 3693,
      "Ġinstruct": 3694,
      "Ġfactor": 3695,
      "Ġexhib": 3696,
      "199": 3697,
      "Ġindustrial": 3698,
      "Ġ26": 3699,
      "ensity": 3700,
      "Ġexperiment": 3701,
      "Ġcommission": 3702,
      "more": 3703,
      "off": 3704,
      "ios": 3705,
      "70": 3706,
      "Ġharv": 3707,
      "Ġlake": 3708,
      "Ġplat": 3709,
      "rol": 3710,
      "Ġglass": 3711,
      "mitted": 3712,
      "âĢĿ,": 3713,
      "Ġben": 3714,
      "Ġnove": 3715,
      "Ġstrugg": 3716,
      "Ġuser": 3717,
      "Ġphen": 3718,
      "era": 3719,
      "aving": 3720,
      "Ġcry": 3721,
      "Ġidentified": 3722,
      "Ġdavid": 3723,
      "Ġincome": 3724,
      "Ġmouth": 3725,
      "Ġconvers": 3726,
      "encies": 3727,
      "Ġhospital": 3728,
      "Ġreference": 3729,
      "lands": 3730,
      "Ġmr": 3731,
      "paign": 3732,
      "Ġretrie": 3733,
      "Ġimmune": 3734,
      "Ġdirection": 3735,
      "Ġnovember": 3736,
      "Ġkid": 3737,
      "vious": 3738,
      "Ġinsect": 3739,
      "Ġmaster": 3740,
      "lection": 3741,
      "Ġreligion": 3742,
      "Ġgrant": 3743,
      "bed": 3744,
      "Ġara": 3745,
      "Ġnutri": 3746,
      "ingu": 3747,
      "Ġsexual": 3748,
      "phas": 3749,
      "Ġkn": 3750,
      "Ġfully": 3751,
      "Ġgames": 3752,
      "Ġfavor": 3753,
      "Ġanyone": 3754,
      "Ġabsor": 3755,
      "Ġrelatively": 3756,
      "Ġterrit": 3757,
      "Ġletter": 3758,
      "Ġcreation": 3759,
      "ruary": 3760,
      "Ġexpand": 3761,
      "ica": 3762,
      "Ġjames": 3763,
      "Ġpap": 3764,
      "Ġlegisl": 3765,
      "Ġaustralia": 3766,
      "Ġ195": 3767,
      "ss": 3768,
      "Ġscholar": 3769,
      "Ġgain": 3770,
      "Ġintellig": 3771,
      "Ġindependent": 3772,
      "ole": 3773,
      "het": 3774,
      "Ġliterature": 3775,
      "Ġawa": 3776,
      "Ġesc": 3777,
      "Ġresistance": 3778,
      "Ġdetails": 3779,
      "Ġexcess": 3780,
      "Ġfamous": 3781,
      "Ġchapter": 3782,
      "ocks": 3783,
      "Ġillness": 3784,
      "Ġchallenge": 3785,
      "Ġtissue": 3786,
      "Ġmachine": 3787,
      "Ġcapacity": 3788,
      "ipl": 3789,
      "rome": 3790,
      "Ġradio": 3791,
      "tm": 3792,
      "Ġresource": 3793,
      "Ġtour": 3794,
      "Ġfeature": 3795,
      "Ġapproximately": 3796,
      "Ġperspect": 3797,
      "Ġstation": 3798,
      "ests": 3799,
      "Ġpassed": 3800,
      "Ġproperties": 3801,
      "Ġcollab": 3802,
      "Ġobserved": 3803,
      "Ġload": 3804,
      "Ġmart": 3805,
      "Ġbalance": 3806,
      "Ġfert": 3807,
      "Ġheavy": 3808,
      "Ġregions": 3809,
      "Ġrace": 3810,
      "Ġstatement": 3811,
      "Ġstreet": 3812,
      "Ġyellow": 3813,
      "Ġminor": 3814,
      "Ġgrade": 3815,
      "gl": 3816,
      "Ġjustice": 3817,
      "Ġclearly": 3818,
      "Ġdisorder": 3819,
      "Ġdrive": 3820,
      "Ġign": 3821,
      "Ġimmediately": 3822,
      "related": 3823,
      "asion": 3824,
      "Ġqual": 3825,
      "Ġhappen": 3826,
      "Ġsuggests": 3827,
      "Ġwarn": 3828,
      "Ġmary": 3829,
      "Ġeastern": 3830,
      "ribute": 3831,
      "ube": 3832,
      "Ġdestroy": 3833,
      "\",": 3834,
      "Ġwanted": 3835,
      "Ġupper": 3836,
      "Ġwarm": 3837,
      "Ġ28": 3838,
      "ida": 3839,
      "Ġroy": 3840,
      "rig": 3841,
      "Ġaim": 3842,
      "Ġgraph": 3843,
      "omen": 3844,
      "Ġcogn": 3845,
      "ams": 3846,
      "ternal": 3847,
      "da": 3848,
      "Ġfunctions": 3849,
      "pping": 3850,
      "Ġadvanced": 3851,
      "Ġconsumption": 3852,
      "Ġapply": 3853,
      "house": 3854,
      "Ġoxy": 3855,
      "Ġseparate": 3856,
      "Ġsong": 3857,
      "Ġshar": 3858,
      "Ġbrother": 3859,
      "ris": 3860,
      "Ġdivid": 3861,
      "rupt": 3862,
      "Ġtreated": 3863,
      "Ġstone": 3864,
      "Ġstarting": 3865,
      "Ġpaul": 3866,
      "Ġattract": 3867,
      "lor": 3868,
      "Ġmich": 3869,
      "Ġhear": 3870,
      "zz": 3871,
      "Ġblog": 3872,
      "Ġplans": 3873,
      "Ġanx": 3874,
      "Ġcampaign": 3875,
      "Ġopin": 3876,
      "Ġcommercial": 3877,
      "Ġpu": 3878,
      "resp": 3879,
      "Ġbuy": 3880,
      "Ġindeed": 3881,
      "iant": 3882,
      "Ġtransfer": 3883,
      "Ġstructures": 3884,
      "wards": 3885,
      "Ġheard": 3886,
      "reness": 3887,
      "rec": 3888,
      "Ġunc": 3889,
      "Ġber": 3890,
      "Ġvolume": 3891,
      "semb": 3892,
      "Ġorganic": 3893,
      "Ġheight": 3894,
      "Ġtopic": 3895,
      "Ġ27": 3896,
      "bal": 3897,
      "Ġphysic": 3898,
      "Ġextremely": 3899,
      "Ġviolence": 3900,
      "Ġannual": 3901,
      "Ġdistrict": 3902,
      "Ġremove": 3903,
      "Ġwatch": 3904,
      "gery": 3905,
      "Ġbottom": 3906,
      "Ġbone": 3907,
      "Ġfebruary": 3908,
      "omas": 3909,
      "Ġefficient": 3910,
      "Ġreserv": 3911,
      "Ġmoon": 3912,
      "Ġhall": 3913,
      "Ġseed": 3914,
      "Ġlesson": 3915,
      "aced": 3916,
      "Ġexisting": 3917,
      "Ġnovel": 3918,
      "Ġmathemat": 3919,
      "Ġactual": 3920,
      "Ġbound": 3921,
      "omb": 3922,
      "Ġdefinition": 3923,
      "Ġrecords": 3924,
      "Ġgreek": 3925,
      "Ġparticipants": 3926,
      "Ġstore": 3927,
      "Ġfilm": 3928,
      "Ġpresented": 3929,
      "Ġopportunities": 3930,
      "Ġdisorders": 3931,
      "rief": 3932,
      "Ġemissions": 3933,
      "Ġcompre": 3934,
      "Ġthr": 3935,
      "Ġunlike": 3936,
      "Ġtrou": 3937,
      "Ġcoal": 3938,
      "Ġprinciples": 3939,
      "Ġkilled": 3940,
      "odes": 3941,
      "Ġ#": 3942,
      "ulum": 3943,
      "iences": 3944,
      "oma": 3945,
      "Ġfinding": 3946,
      "Ġmit": 3947,
      "Ġobvious": 3948,
      "Ġfacts": 3949,
      "Ġhighest": 3950,
      "Ġves": 3951,
      "Ġrelease": 3952,
      "Ġflood": 3953,
      "oe": 3954,
      "Ġfix": 3955,
      "Ġhur": 3956,
      "ses": 3957,
      "Ġbord": 3958,
      "Ġhomes": 3959,
      "Ġdefined": 3960,
      "Ġitems": 3961,
      "ony": 3962,
      "Ġmoved": 3963,
      "Ġround": 3964,
      "Ġslight": 3965,
      "Ġyouth": 3966,
      "Ġbecoming": 3967,
      "Ġtor": 3968,
      "29": 3969,
      "Ġmeeting": 3970,
      "Ġmessage": 3971,
      "Ġlived": 3972,
      "Ġchanging": 3973,
      "cop": 3974,
      "Ġ2017": 3975,
      "char": 3976,
      "Ġgoals": 3977,
      "Ġjapanese": 3978,
      "Ġemphas": 3979,
      "21": 3980,
      "Ġcredit": 3981,
      "Ġcove": 3982,
      "Ġserve": 3983,
      "Ġsample": 3984,
      "Ġfailure": 3985,
      "Ġdecades": 3986,
      "Ġencourage": 3987,
      "Ġbackground": 3988,
      "Ġbird": 3989,
      "Ġelectricity": 3990,
      "Ġdogs": 3991,
      "Ġ2006": 3992,
      "Ġdetect": 3993,
      "force": 3994,
      "Ġchief": 3995,
      "Ġcarried": 3996,
      "Ġic": 3997,
      "Ġgeorge": 3998,
      "26": 3999,
      "Ġmur": 4000,
      "gi": 4001,
      "Ġcomponents": 4002,
      "Ġcycle": 4003,
      "Ġseeds": 4004,
      "ocol": 4005,
      "Ġcurric": 4006,
      "Ġdiscussion": 4007,
      "Ġdoub": 4008,
      "Ġinstance": 4009,
      "Ġship": 4010,
      "Ġ2000": 4011,
      "Ġgall": 4012,
      "Ġexperiences": 4013,
      "ux": 4014,
      "Ġgrass": 4015,
      "Ġvoc": 4016,
      "ifically": 4017,
      "Ġbodies": 4018,
      "Ġsaying": 4019,
      "gs": 4020,
      "rations": 4021,
      "Ġdrop": 4022,
      "aint": 4023,
      "Ġlic": 4024,
      "Ġcontract": 4025,
      "ceed": 4026,
      "Ġadministration": 4027,
      "ws": 4028,
      "Ġstrategies": 4029,
      "Ġcomplic": 4030,
      "27": 4031,
      "28": 4032,
      "Ġready": 4033,
      "Ġoffers": 4034,
      "ky": 4035,
      "Ġshap": 4036,
      "Ġpages": 4037,
      "Ġupd": 4038,
      "Ġinvent": 4039,
      "Ġestimated": 4040,
      "Ġflag": 4041,
      "Ġintroduced": 4042,
      "Ġturned": 4043,
      "Ġpp": 4044,
      "Ġbuildings": 4045,
      "Ġfine": 4046,
      "Ġhousehold": 4047,
      "Ġsignificantly": 4048,
      "Ġid": 4049,
      "no": 4050,
      "Ġauthors": 4051,
      "Ġnumerous": 4052,
      "Ġplastic": 4053,
      "Ġgets": 4054,
      "Ġpret": 4055,
      "Ġbow": 4056,
      "ga": 4057,
      "Ġdri": 4058,
      "Ġchallenges": 4059,
      "Ġdistribution": 4060,
      "Ġham": 4061,
      "Ġpartners": 4062,
      "Ġprevention": 4063,
      "Ġmi": 4064,
      "des": 4065,
      "Ġhiv": 4066,
      "othes": 4067,
      "Ġtechnologies": 4068,
      "Ġinternal": 4069,
      "Ġ80": 4070,
      "enn": 4071,
      "Ġexperts": 4072,
      "Ġemail": 4073,
      "Ġdegrees": 4074,
      "Ġconducted": 4075,
      "Ġliqu": 4076,
      "Ġauthority": 4077,
      "Ġoptions": 4078,
      "Ġoxygen": 4079,
      "Ġ...": 4080,
      "Ġsetting": 4081,
      "Ġintervent": 4082,
      "gment": 4083,
      "Ġfields": 4084,
      "Ġconcl": 4085,
      "antic": 4086,
      "Ġstem": 4087,
      "Ġsquare": 4088,
      "la": 4089,
      "Ġbay": 4090,
      "ographic": 4091,
      "well": 4092,
      "sa": 4093,
      "Ġdepending": 4094,
      "Ġsynd": 4095,
      "Ġbeautiful": 4096,
      "works": 4097,
      "Ġflor": 4098,
      "Ġaccur": 4099,
      "Ġcalc": 4100,
      "Ġeasier": 4101,
      "Ġreleased": 4102,
      "Ġprepar": 4103,
      "Ġinjury": 4104,
      "Ġagriculture": 4105,
      "Ġfle": 4106,
      "Ġpric": 4107,
      "Ġreform": 4108,
      "Ġsurgery": 4109,
      "Ġreprodu": 4110,
      "Ġconfir": 4111,
      "Ġmostly": 4112,
      "Ġcontrast": 4113,
      "Ġsud": 4114,
      "Ġrail": 4115,
      "Ġwonder": 4116,
      "isation": 4117,
      "Ġvolun": 4118,
      "Ġwhom": 4119,
      "Ġmetal": 4120,
      "Ġmc": 4121,
      "Ġfill": 4122,
      "mp": 4123,
      "key": 4124,
      "Ġcorpor": 4125,
      "Ġdram": 4126,
      "Ġrecommended": 4127,
      "att": 4128,
      "Ġtemperatures": 4129,
      "change": 4130,
      "urally": 4131,
      "Ġholy": 4132,
      "Ġconflict": 4133,
      "Ġengage": 4134,
      "Ġspot": 4135,
      "Ġagency": 4136,
      "tered": 4137,
      "Ġod": 4138,
      "Ġ2005": 4139,
      "Ġfrequently": 4140,
      "hyd": 4141,
      "Ġpopulations": 4142,
      "Ġclasses": 4143,
      "Ġsmok": 4144,
      "Ġfro": 4145,
      "Ġjer": 4146,
      "iring": 4147,
      "Ġinitial": 4148,
      "omic": 4149,
      "Ġfif": 4150,
      "Ġconv": 4151,
      "Ġcentre": 4152,
      "Ġcounter": 4153,
      "Ġmort": 4154,
      "Ġassemb": 4155,
      "Ġexecut": 4156,
      "Ġpil": 4157,
      "90": 4158,
      "Ġsnow": 4159,
      "Ġawareness": 4160,
      "Ġhour": 4161,
      "Ġlandsc": 4162,
      "Ġpra": 4163,
      "ologist": 4164,
      "mark": 4165,
      "Ġ190": 4166,
      "Ġtrig": 4167,
      "Ġcorn": 4168,
      "Ġwildlife": 4169,
      "Ġvot": 4170,
      "iate": 4171,
      "Ġaware": 4172,
      "Ġamaz": 4173,
      "Ġcausing": 4174,
      "Ġmist": 4175,
      "Ġcharacteristics": 4176,
      "gal": 4177,
      "Ġexactly": 4178,
      "Ġwealth": 4179,
      "Ġmeat": 4180,
      "Ġearn": 4181,
      "edic": 4182,
      "Ġdecided": 4183,
      "ologists": 4184,
      "Ġcomment": 4185,
      "abilities": 4186,
      "Ġapart": 4187,
      "otyp": 4188,
      "Ġintroduction": 4189,
      "mar": 4190,
      "Ġutil": 4191,
      "Ġdangerous": 4192,
      "Ġspanish": 4193,
      "Ġprefer": 4194,
      "sis": 4195,
      "cast": 4196,
      "Ġsalt": 4197,
      "Ġconnection": 4198,
      "Ġcovered": 4199,
      "Ġbond": 4200,
      "ald": 4201,
      "ortion": 4202,
      "how": 4203,
      "Ġscen": 4204,
      "Ġkingdom": 4205,
      "ias": 4206,
      "Ġperformed": 4207,
      "imens": 4208,
      "Ġroyal": 4209,
      "Ġlou": 4210,
      "Ġmountain": 4211,
      "Ġnoted": 4212,
      "Ġvary": 4213,
      "Ġaid": 4214,
      "Ġpip": 4215,
      "Ġhorm": 4216,
      "Ġacademic": 4217,
      "Ġze": 4218,
      "ata": 4219,
      "Ġcombination": 4220,
      "Ġexpression": 4221,
      "Ġtal": 4222,
      "ulf": 4223,
      "Ġinflamm": 4224,
      "Ġtrend": 4225,
      "Ġdescribe": 4226,
      "Ġfeeling": 4227,
      "Ġempire": 4228,
      "riage": 4229,
      "Ġyes": 4230,
      "ager": 4231,
      "Ġvirgin": 4232,
      "Ġcommitte": 4233,
      "imal": 4234,
      "Ġhyper": 4235,
      "Ġradiation": 4236,
      "Ġjews": 4237,
      "ball": 4238,
      "Ġaspects": 4239,
      "Ġcere": 4240,
      "Ġdiss": 4241,
      "Ġpreviously": 4242,
      "Ġconnected": 4243,
      "Ġincorpor": 4244,
      "Ġmotor": 4245,
      "Ġwit": 4246,
      "Ġnotice": 4247,
      "Ġarticles": 4248,
      "Ġretrieved": 4249,
      "pat": 4250,
      "Ġvegetables": 4251,
      "Ġreplace": 4252,
      "Ġdecisions": 4253,
      "Ġbible": 4254,
      "Ġsolid": 4255,
      "tical": 4256,
      "Ġfarmers": 4257,
      "Ġsort": 4258,
      "Ġ29": 4259,
      "Ġkept": 4260,
      "Ġreducing": 4261,
      "Ġages": 4262,
      "Ġcircum": 4263,
      "Ġinfections": 4264,
      "ya": 4265,
      "iment": 4266,
      "Ġhappens": 4267,
      "Ġisol": 4268,
      "col": 4269,
      "Ġvul": 4270,
      "enth": 4271,
      "Ġexcell": 4272,
      "Ġpreserv": 4273,
      "Ġdiscover": 4274,
      "Ġmorning": 4275,
      "Ġcertainly": 4276,
      "Ġtechnique": 4277,
      "Ġbritain": 4278,
      "Ġlinked": 4279,
      "Ġpolicies": 4280,
      "Ġsup": 4281,
      "Ġpac": 4282,
      "mic": 4283,
      "uit": 4284,
      "Ġgender": 4285,
      "Ġorganizations": 4286,
      "Ġmeant": 4287,
      "porary": 4288,
      "Ġeggs": 4289,
      "Ġflowers": 4290,
      "iter": 4291,
      "Ġsche": 4292,
      "Ġquar": 4293,
      "ca": 4294,
      "Ġrisks": 4295,
      "Ġastron": 4296,
      "Ġisl": 4297,
      "ees": 4298,
      "35": 4299,
      "Ġspent": 4300,
      "Ġuniverse": 4301,
      "Ġpray": 4302,
      "Ġinterpret": 4303,
      "Ġregarding": 4304,
      "Ġofficial": 4305,
      "lim": 4306,
      "Ġlayer": 4307,
      "Ġrelationships": 4308,
      "Ġwidely": 4309,
      "Ġcomprehens": 4310,
      "Ġconsult": 4311,
      "Ġrand": 4312,
      "Ġrang": 4313,
      "Ġhelped": 4314,
      "Ġpollution": 4315,
      "arent": 4316,
      "Ġdistinct": 4317,
      "Ġthick": 4318,
      "Ġremoved": 4319,
      "ession": 4320,
      "Ġletters": 4321,
      "orage": 4322,
      "Ġclos": 4323,
      "Ġkeeping": 4324,
      "Ġunits": 4325,
      "ago": 4326,
      "Ġcurriculum": 4327,
      "but": 4328,
      "Ġrub": 4329,
      "eff": 4330,
      "Ġelimin": 4331,
      "part": 4332,
      "Ġpresc": 4333,
      "Ġinterested": 4334,
      "olved": 4335,
      "Ġrequirements": 4336,
      "ception": 4337,
      "iff": 4338,
      "Ġlung": 4339,
      "anch": 4340,
      "Ġtum": 4341,
      "rows": 4342,
      "cers": 4343,
      "Ġemotional": 4344,
      "ping": 4345,
      "Ġmanufacture": 4346,
      "Ġstorm": 4347,
      "Ġmyth": 4348,
      "ares": 4349,
      "Ġvessel": 4350,
      "ped": 4351,
      "Ġ70": 4352,
      "Ġlooks": 4353,
      "Ġdrinking": 4354,
      "cular": 4355,
      "Ġhelping": 4356,
      "ieties": 4357,
      "Ġvoice": 4358,
      "verty": 4359,
      "atically": 4360,
      "Ġcoop": 4361,
      "Ġwet": 4362,
      "'ll": 4363,
      "met": 4364,
      "Ġprepared": 4365,
      "mal": 4366,
      "tr": 4367,
      "Ġleads": 4368,
      "Ġoperations": 4369,
      "Ġpoverty": 4370,
      "ria": 4371,
      "iders": 4372,
      "Ġcreative": 4373,
      "Ġbelong": 4374,
      "Ġmexico": 4375,
      "Ġsyndrome": 4376,
      "Ġnan": 4377,
      "Ġmarine": 4378,
      "ressed": 4379,
      "Ġdatab": 4380,
      "Ġcompl": 4381,
      "Ġbright": 4382,
      "Â°": 4383,
      "Ġotherwise": 4384,
      "Ġjobs": 4385,
      "iling": 4386,
      "Ġthomas": 4387,
      "my": 4388,
      "Ġgun": 4389,
      "Ġleader": 4390,
      "Ġaqu": 4391,
      "gu": 4392,
      "Ġ186": 4393,
      "Ġoperation": 4394,
      "Ġtaught": 4395,
      "Ġscript": 4396,
      "igen": 4397,
      "Ġasia": 4398,
      "Ġsend": 4399,
      "Ġadjust": 4400,
      "Ġmentioned": 4401,
      "amental": 4402,
      "aur": 4403,
      "Ġrenew": 4404,
      "Ġproperly": 4405,
      "kes": 4406,
      "rative": 4407,
      "Ġdro": 4408,
      "Ġwaters": 4409,
      "Ġsolutions": 4410,
      "iveness": 4411,
      "iday": 4412,
      "Ġgirls": 4413,
      "Ġexperienced": 4414,
      "Ġadvantage": 4415,
      "nic": 4416,
      "Ġdoll": 4417,
      "Ġseek": 4418,
      "elines": 4419,
      "Ġphenomen": 4420,
      "Ġpresentation": 4421,
      "Ġliver": 4422,
      "Ġconcepts": 4423,
      "Ġdiagnosis": 4424,
      "Ġresulting": 4425,
      "Ġsmart": 4426,
      "Ġagricultural": 4427,
      "Ġinvolve": 4428,
      "Ġbudd": 4429,
      "Ġ90": 4430,
      "45": 4431,
      "Ġcris": 4432,
      "Ġinfluen": 4433,
      "Ġexistence": 4434,
      "'ve": 4435,
      "Ġspecifically": 4436,
      "Ġreduction": 4437,
      "Ġreferred": 4438,
      "eria": 4439,
      "Ġbrief": 4440,
      "Ġsounds": 4441,
      "Ġapparent": 4442,
      "Ġdomestic": 4443,
      "Ġamounts": 4444,
      "Ġtraff": 4445,
      "Ġdetermined": 4446,
      "Ġsubjects": 4447,
      "Ġtips": 4448,
      "Ġfoss": 4449,
      "Ġbegins": 4450,
      "Ġpros": 4451,
      "Ġconcern": 4452,
      "df": 4453,
      "Ġclim": 4454,
      "Ġlanguages": 4455,
      "Ġstrategy": 4456,
      "Ġsustainable": 4457,
      "Ġthanks": 4458,
      "uration": 4459,
      "Ġhaz": 4460,
      "Ġflight": 4461,
      "airs": 4462,
      "Ġforced": 4463,
      "Ġanxiety": 4464,
      "Ġfelt": 4465,
      "orial": 4466,
      "Ġpolice": 4467,
      "Ġrelevant": 4468,
      "Ġdouble": 4469,
      "Ġhearing": 4470,
      "Ġphoto": 4471,
      "Ġtooth": 4472,
      "google": 4473,
      "Ġshowing": 4474,
      "Ġoutput": 4475,
      "Ġlatin": 4476,
      "wood": 4477,
      "Ġserved": 4478,
      "Ġinstruction": 4479,
      "word": 4480,
      "board": 4481,
      "point": 4482,
      "inger": 4483,
      "Ġpair": 4484,
      "Ġlaboratory": 4485,
      "Ġconclud": 4486,
      "Ġcompleted": 4487,
      "rum": 4488,
      "Ġpieces": 4489,
      "Ġjack": 4490,
      "Ġmotiv": 4491,
      "Ġalle": 4492,
      "Ġreaction": 4493,
      "Ġcomfort": 4494,
      "Ġreached": 4495,
      "Ġimper": 4496,
      "Ġbiological": 4497,
      "Ġtechnical": 4498,
      "Ġconscious": 4499,
      "Ġimproved": 4500,
      "Ġwindows": 4501,
      "Ġinvolves": 4502,
      "Ġdan": 4503,
      "Ġchemicals": 4504,
      "Ġcognitive": 4505,
      "ev": 4506,
      "Ġtemple": 4507,
      "rew": 4508,
      "Ġmanner": 4509,
      "aughter": 4510,
      "ystem": 4511,
      "Ġdiscovery": 4512,
      "Ġshared": 4513,
      "Ġflat": 4514,
      "Ġexpert": 4515,
      "Ġprocessing": 4516,
      "Ġwife": 4517,
      "ipal": 4518,
      "Ġimmun": 4519,
      "Ġpromote": 4520,
      "Ġpractical": 4521,
      "Ġfal": 4522,
      "Ġstorage": 4523,
      "Ġven": 4524,
      "bits": 4525,
      "Ġphase": 4526,
      "bra": 4527,
      "body": 4528,
      "Ġtast": 4529,
      "Ġ2004": 4530,
      "oo": 4531,
      "Ġstro": 4532,
      "Ġspend": 4533,
      "Ġowners": 4534,
      "Ġfrequency": 4535,
      "Ġcatholic": 4536,
      "Ġstars": 4537,
      "Ġcommittee": 4538,
      "ishing": 4539,
      "Ġpy": 4540,
      "ordin": 4541,
      "Ġstock": 4542,
      "Ġstraight": 4543,
      "Ġatmosphere": 4544,
      "Ġtow": 4545,
      "Ġ35": 4546,
      "ael": 4547,
      "Ġband": 4548,
      "Ġlooked": 4549,
      "ested": 4550,
      "Ġformation": 4551,
      "za": 4552,
      "olute": 4553,
      "Ġtitle": 4554,
      "ij": 4555,
      "Ġsuppl": 4556,
      "Ġabuse": 4557,
      "Ġphone": 4558,
      "Ġvalley": 4559,
      "Ġtexas": 4560,
      "Ġalt": 4561,
      "fered": 4562,
      "Ġpaint": 4563,
      "Ġcombined": 4564,
      "Ġconcerns": 4565,
      "asks": 4566,
      "Ġnasa": 4567,
      "Ġeffectively": 4568,
      "Ġspiritual": 4569,
      "respond": 4570,
      "Ġvent": 4571,
      "Ġidentity": 4572,
      "Ġislands": 4573,
      "Ġsettle": 4574,
      "Ġtoxic": 4575,
      "ads": 4576,
      "ilit": 4577,
      "umin": 4578,
      "Ġchann": 4579,
      "rep": 4580,
      "33": 4581,
      "Ġcharge": 4582,
      "Ġatl": 4583,
      "Ġsciences": 4584,
      "Ġexposed": 4585,
      "Ġmetab": 4586,
      "band": 4587,
      "Ġphilosophy": 4588,
      "Ġhero": 4589,
      "Ġproposed": 4590,
      "care": 4591,
      "Ġprofession": 4592,
      "Ġhundreds": 4593,
      "Ġdivision": 4594,
      "ributed": 4595,
      "Ġsusp": 4596,
      "Ġperman": 4597,
      "Ġindex": 4598,
      "Ġther": 4599,
      "Ġcenturies": 4600,
      "Ġhappened": 4601,
      "ander": 4602,
      "Ġange": 4603,
      "Ġtun": 4604,
      "Ġintel": 4605,
      "Ġinput": 4606,
      "with": 4607,
      "ĠâĢ¦": 4608,
      "Ġmotion": 4609,
      "Ġshel": 4610,
      "Ġemergency": 4611,
      "Ġpictures": 4612,
      "rian": 4613,
      "Ġdownload": 4614,
      "vert": 4615,
      "Ġoriginally": 4616,
      "Ġrural": 4617,
      "osite": 4618,
      "urance": 4619,
      "istan": 4620,
      "umn": 4621,
      "Ġexplan": 4622,
      "greg": 4623,
      "Ġraised": 4624,
      "Ġalg": 4625,
      "Ġknew": 4626,
      "Ġmuscles": 4627,
      "78": 4628,
      "zy": 4629,
      "berg": 4630,
      "Ġlessons": 4631,
      "Ġspl": 4632,
      "gr": 4633,
      "Ġadding": 4634,
      "Ġcert": 4635,
      "Ġdream": 4636,
      "Ġoption": 4637,
      "Ġremained": 4638,
      "Ġhighlight": 4639,
      "Ġrecorded": 4640,
      "Ġimmig": 4641,
      "you": 4642,
      "Ġsignal": 4643,
      "iance": 4644,
      "Ġelectrical": 4645,
      "Ġfranc": 4646,
      "Ġgoogle": 4647,
      "Ġwal": 4648,
      "amb": 4649,
      "Ġprison": 4650,
      "ferences": 4651,
      "ding": 4652,
      "Ġacts": 4653,
      "Ġmere": 4654,
      "Ġscreen": 4655,
      "ishes": 4656,
      "Ġsupported": 4657,
      "Ġip": 4658,
      "Ġcontinues": 4659,
      "Ġplaying": 4660,
      "Ġrein": 4661,
      "Ġfruits": 4662,
      "Ġbor": 4663,
      "Ġsoldiers": 4664,
      "icks": 4665,
      "Ġsed": 4666,
      "Ġamb": 4667,
      "Ġroll": 4668,
      "Ġextensive": 4669,
      "Ġlinks": 4670,
      "Ġnit": 4671,
      "Ġideal": 4672,
      "Ġphotos": 4673,
      "west": 4674,
      "ault": 4675,
      "Ġmainly": 4676,
      "Ġappoint": 4677,
      "Ġallowing": 4678,
      "75": 4679,
      "zing": 4680,
      "Ġtypical": 4681,
      "Ġdial": 4682,
      "Ġthin": 4683,
      "Ġmad": 4684,
      "Ġoffered": 4685,
      "Ġimpl": 4686,
      "isher": 4687,
      "there": 4688,
      "Ġpregnancy": 4689,
      "Ġintended": 4690,
      "Ġcorrespond": 4691,
      "Ġnurs": 4692,
      "Ġkil": 4693,
      "Ġmoral": 4694,
      "Ġsuggested": 4695,
      "ague": 4696,
      "Ġrough": 4697,
      "ratic": 4698,
      "Ġtried": 4699,
      "?âĢĿ": 4700,
      "Ġmamm": 4701,
      "Ġgreatest": 4702,
      "Ġplayed": 4703,
      "ounced": 4704,
      "win": 4705,
      "Ġlargely": 4706,
      "Ġperspective": 4707,
      "acters": 4708,
      "Ġhorse": 4709,
      "Ġwire": 4710,
      "iled": 4711,
      "Ġvan": 4712,
      "Ġhabitat": 4713,
      "Ġconsequences": 4714,
      "Ġresponsibility": 4715,
      "Ġnerv": 4716,
      "bn": 4717,
      "Ġoperating": 4718,
      "sm": 4719,
      "Ġonto": 4720,
      "Ġinstitutions": 4721,
      "Ġmand": 4722,
      "rogen": 4723,
      "Ġunfortun": 4724,
      "Ġimplic": 4725,
      "Ġkinds": 4726,
      "osystem": 4727,
      "Ġadvance": 4728,
      "Ġing": 4729,
      "tes": 4730,
      "Ġarts": 4731,
      "Ġcharacters": 4732,
      "Ġtopics": 4733,
      "hi": 4734,
      "Ġsufficient": 4735,
      "aker": 4736,
      "mes": 4737,
      "Ġaren": 4738,
      "ugh": 4739,
      "Ġcontem": 4740,
      "Ġexplained": 4741,
      "Ġoral": 4742,
      "Ġenem": 4743,
      "Ġarab": 4744,
      "Ġkit": 4745,
      "Ġmaximum": 4746,
      "och": 4747,
      "Ġru": 4748,
      "roph": 4749,
      "Ġoccurred": 4750,
      "iced": 4751,
      "Ġsky": 4752,
      "Ġvast": 4753,
      "Ġrobert": 4754,
      "ny": 4755,
      "ado": 4756,
      "Ġexplains": 4757,
      "Ġpit": 4758,
      "atric": 4759,
      "Ġfamiliar": 4760,
      "Ġprocedure": 4761,
      "Ġdigest": 4762,
      "Ã¡": 4763,
      "Ġexternal": 4764,
      "Ġcareer": 4765,
      "war": 4766,
      "Ġsubsequ": 4767,
      "burg": 4768,
      "Ġabsolute": 4769,
      "Ġflex": 4770,
      "Ġbehaviour": 4771,
      "Ġvillage": 4772,
      "Ġmobile": 4773,
      "aph": 4774,
      "Ġspeaking": 4775,
      "Ġsod": 4776,
      "Ġprimarily": 4777,
      "Ġ189": 4778,
      "norm": 4779,
      "Ġcub": 4780,
      "Ġbot": 4781,
      "Ġ2003": 4782,
      "Ġpig": 4783,
      "Ġpoet": 4784,
      "Ġpersons": 4785,
      "Ġmulti": 4786,
      "Ġwalls": 4787,
      "Ġliquid": 4788,
      "Ġweap": 4789,
      "Ġlose": 4790,
      "alled": 4791,
      "Ġprinciple": 4792,
      "Ġtreatments": 4793,
      "Ġindicate": 4794,
      "atever": 4795,
      "Ġinterview": 4796,
      "Ġefficiency": 4797,
      "Ġthoughts": 4798,
      "Ġbridge": 4799,
      "Ġneighbor": 4800,
      "Ġsamples": 4801,
      "Ġleadership": 4802,
      "Ġallerg": 4803,
      "mi": 4804,
      "Ġtrain": 4805,
      "rick": 4806,
      "hist": 4807,
      "Ġsituations": 4808,
      "Ġadvice": 4809,
      "Ġbag": 4810,
      "Ġdiam": 4811,
      "Ġtalking": 4812,
      "Ġsuffering": 4813,
      "Ġdoctors": 4814,
      "Ġren": 4815,
      "Ġdisapp": 4816,
      "akers": 4817,
      "which": 4818,
      "Ġera": 4819,
      "Ġmarriage": 4820,
      "Ġfocused": 4821,
      "lig": 4822,
      "Ġpurposes": 4823,
      "Ġtrial": 4824,
      "36": 4825,
      "Ġgovernments": 4826,
      "Ġelev": 4827,
      "Ġattacks": 4828,
      "mas": 4829,
      "Ġhappy": 4830,
      "Ġvisible": 4831,
      "Ġparticles": 4832,
      "ania": 4833,
      "Ġindependence": 4834,
      "Ġcrops": 4835,
      "Ġminister": 4836,
      "Ġok": 4837,
      "Ġbes": 4838,
      "Ġunless": 4839,
      "iated": 4840,
      "Ġfaster": 4841,
      "Ġvaccine": 4842,
      "har": 4843,
      "Ġleaving": 4844,
      "Ġslightly": 4845,
      "Ġvulner": 4846,
      "Ġofficials": 4847,
      "unk": 4848,
      "otic": 4849,
      "Ġcomputers": 4850,
      "va": 4851,
      "Ġcd": 4852,
      "Ġfundamental": 4853,
      "Ġsports": 4854,
      "onic": 4855,
      "viet": 4856,
      "ifying": 4857,
      "Ġcharles": 4858,
      "Ġstick": 4859,
      "Ġmillions": 4860,
      "Ġpacific": 4861,
      "Ġsynthe": 4862,
      "Ġmoist": 4863,
      "Ġcollected": 4864,
      "Ġprem": 4865,
      "Ġconference": 4866,
      "Ġmeasured": 4867,
      "Ġlad": 4868,
      "Ġfloor": 4869,
      "Ġcontrolled": 4870,
      "Ġecosystem": 4871,
      "Ġnutrients": 4872,
      "Ġstret": 4873,
      "Ġdivided": 4874,
      "iable": 4875,
      "Ġfell": 4876,
      "Ġgrown": 4877,
      "Ġcloth": 4878,
      "Ġnaturally": 4879,
      "Ġsurrounding": 4880,
      "Ġantibiot": 4881,
      "100": 4882,
      "Ġkore": 4883,
      "that": 4884,
      "Ġhenry": 4885,
      "inent": 4886,
      "Ġproteins": 4887,
      "Ġextent": 4888,
      "Ġhill": 4889,
      "Ġregional": 4890,
      "Ġcart": 4891,
      "eline": 4892,
      "ef": 4893,
      "Ġdin": 4894,
      "Ġnormally": 4895,
      "Ġvital": 4896,
      "cript": 4897,
      "Ġroots": 4898,
      "Ġvalu": 4899,
      "Ġrecy": 4900,
      "Ġcos": 4901,
      "Ġcolors": 4902,
      "Ġdepth": 4903,
      "Ġcouple": 4904,
      "Ġtested": 4905,
      "Ġcrisis": 4906,
      "car": 4907,
      "Ġclaims": 4908,
      "going": 4909,
      "Ġjose": 4910,
      "Ġgoods": 4911,
      "Ġrh": 4912,
      "Ġble": 4913,
      "Ġiv": 4914,
      "net": 4915,
      "Ġconcerned": 4916,
      "Ġparal": 4917,
      "Ġargument": 4918,
      "Ġlatest": 4919,
      "Ġbio": 4920,
      "Ġstudied": 4921,
      "Ġreturned": 4922,
      "stood": 4923,
      "Ġwhatever": 4924,
      "Ġsudden": 4925,
      "Ġwear": 4926,
      "Ġsatis": 4927,
      "Ġpretty": 4928,
      "nam": 4929,
      "Ġexcellent": 4930,
      "Ġfer": 4931,
      "Ġneut": 4932,
      "Ġfab": 4933,
      "Ġtea": 4934,
      "Ġpure": 4935,
      "....": 4936,
      "Ġphysics": 4937,
      "Ġrandom": 4938,
      "Ġsweet": 4939,
      "Ġcontribute": 4940,
      "Ġsecondary": 4941,
      "Ġfirm": 4942,
      "Ġdetailed": 4943,
      "Ġkm": 4944,
      "rich": 4945,
      "ulating": 4946,
      "Ġresidents": 4947,
      "Ġda": 4948,
      "Ġguidelines": 4949,
      "38": 4950,
      "rine": 4951,
      "oxide": 4952,
      "Ġviews": 4953,
      "Ġwil": 4954,
      "Ġperiods": 4955,
      "Ġlas": 4956,
      "Ġcro": 4957,
      "Ġfrank": 4958,
      "tion": 4959,
      "Ġinterests": 4960,
      "Ġ<": 4961,
      "Ġsector": 4962,
      "rating": 4963,
      "Ġprices": 4964,
      "Ġwarming": 4965,
      "Ġwave": 4966,
      "Ġrussia": 4967,
      "ola": 4968,
      "Ġtom": 4969,
      "Ġdedic": 4970,
      "Ġhus": 4971,
      "Ġdescription": 4972,
      "Ġpump": 4973,
      "ka": 4974,
      "Ġvehicle": 4975,
      "Ġcontaining": 4976,
      "ĠÎ": 4977,
      "free": 4978,
      "Ġdeaths": 4979,
      "tml": 4980,
      "rant": 4981,
      "Ġalex": 4982,
      "fig": 4983,
      "Ġpossibly": 4984,
      "Ġadvoc": 4985,
      "Ġbiology": 4986,
      "Ġsight": 4987,
      "vision": 4988,
      "ructure": 4989,
      "ville": 4990,
      "Ġrussian": 4991,
      "Ġsad": 4992,
      "tra": 4993,
      "Ġintellect": 4994,
      "Ġ1990": 4995,
      "Ġappeared": 4996,
      "unction": 4997,
      "name": 4998,
      "Ġintelligence": 4999,
      "Ġmonitoring": 5000,
      "Ġoh": 5001,
      "Ġsides": 5002,
      "bing": 5003,
      "Ġplate": 5004,
      "asp": 5005,
      "Ġformat": 5006,
      "Ġpull": 5007,
      "Ġpaid": 5008,
      "Ġinches": 5009,
      "itors": 5010,
      "Ġsubstant": 5011,
      "field": 5012,
      "Ġboy": 5013,
      "Ġfigures": 5014,
      "Ġ2001": 5015,
      "yright": 5016,
      "Ġtail": 5017,
      "Ġrepresents": 5018,
      "Ġchart": 5019,
      "Ġdiversity": 5020,
      "Ġlands": 5021,
      "Ġplatform": 5022,
      "Ġaw": 5023,
      "Ġbear": 5024,
      "Ġminimum": 5025,
      "Ġagreement": 5026,
      "Ġopinion": 5027,
      "Ġcloud": 5028,
      "Ġcarol": 5029,
      "Ġbelief": 5030,
      "Ġarchae": 5031,
      "Ġherit": 5032,
      "Ġhelpful": 5033,
      "Ġmov": 5034,
      "Ġmedium": 5035,
      "Ġfeelings": 5036,
      "comes": 5037,
      "Ġchildhood": 5038,
      "Ġconcentration": 5039,
      "Ġancest": 5040,
      "Ġraise": 5041,
      "Ġdriving": 5042,
      "Ġax": 5043,
      "Ġfluid": 5044,
      "Ġtel": 5045,
      "Ġsatell": 5046,
      "Ġgrav": 5047,
      "Ġinstrument": 5048,
      "Ġken": 5049,
      "Ġimposs": 5050,
      "rete": 5051,
      "Ġhouses": 5052,
      "esity": 5053,
      "Ġsmith": 5054,
      "Ġstream": 5055,
      "Ġsoviet": 5056,
      "Ġaffects": 5057,
      "Ġcoff": 5058,
      "Ġsurvival": 5059,
      "fall": 5060,
      "34": 5061,
      "Ġrefers": 5062,
      "Ġimpacts": 5063,
      "Ġguard": 5064,
      "Ġjoin": 5065,
      "Ġpeak": 5066,
      "Ġaccompl": 5067,
      "ensus": 5068,
      "Ġprotected": 5069,
      "Ġlouis": 5070,
      "roid": 5071,
      "Ġhence": 5072,
      "uls": 5073,
      "cs": 5074,
      "Ġexchange": 5075,
      "Ġleaf": 5076,
      "Ġfunding": 5077,
      "Ġarth": 5078,
      "Ġfacilities": 5079,
      "Ġtouch": 5080,
      "Ġtasks": 5081,
      "Ġanswers": 5082,
      "ba": 5083,
      "Ġdistingu": 5084,
      "Ġtells": 5085,
      "Ġlisten": 5086,
      "Ġlandscape": 5087,
      "Ġreaders": 5088,
      "Ġincreasingly": 5089,
      "Ġultimately": 5090,
      "Ġsupplement": 5091,
      "Ġportion": 5092,
      "Ġfollows": 5093,
      "Ġhem": 5094,
      "othe": 5095,
      "Ġsick": 5096,
      "Ġscholars": 5097,
      "Ġfiles": 5098,
      "Ġphr": 5099,
      "down": 5100,
      "Ġtraffic": 5101,
      "Ġpin": 5102,
      "Ġselected": 5103,
      "dr": 5104,
      "Ġrecip": 5105,
      "Ġpotentially": 5106,
      "Ġcalls": 5107,
      "Ġclosely": 5108,
      "Ġvolunte": 5109,
      "place": 5110,
      "Ġexperiments": 5111,
      "âĢĻ.": 5112,
      "Ġsuffer": 5113,
      "pet": 5114,
      "âĢľ": 5115,
      "ded": 5116,
      "Ġmassive": 5117,
      "arr": 5118,
      "Ġhistoric": 5119,
      "Ġmaybe": 5120,
      "Ġfly": 5121,
      "rier": 5122,
      "Ġnone": 5123,
      "Ġdocuments": 5124,
      "Ġintake": 5125,
      "Ġlots": 5126,
      "Ġ2002": 5127,
      "Ġcomponent": 5128,
      "Ġkh": 5129,
      "Ġrecognized": 5130,
      "Ġath": 5131,
      "Ġrab": 5132,
      "Ġdecrease": 5133,
      "wing": 5134,
      "chool": 5135,
      "Ġtiny": 5136,
      "nel": 5137,
      "Ġaircraft": 5138,
      "Ġdatabase": 5139,
      "Ġpeter": 5140,
      "Ġobesity": 5141,
      "Ġcopyright": 5142,
      "Ġaccurate": 5143,
      "Ġthor": 5144,
      "Ġstom": 5145,
      "long": 5146,
      "Ġneither": 5147,
      "Ġtruly": 5148,
      "Ġremind": 5149,
      "Ġelectronic": 5150,
      "Ġbudget": 5151,
      "ulin": 5152,
      "Ġmir": 5153,
      "Ġvalid": 5154,
      "Ġbones": 5155,
      "Ġdust": 5156,
      "Ġrevealed": 5157,
      "Ġappearance": 5158,
      "Ġstated": 5159,
      "Ġsubstance": 5160,
      "Ġfertil": 5161,
      "Ġerror": 5162,
      "Ġsubs": 5163,
      "Ġanth": 5164,
      "Ġseeing": 5165,
      "ĠÃ": 5166,
      "Ġlabel": 5167,
      "enses": 5168,
      "Ġmovements": 5169,
      "Ġobtained": 5170,
      "Ġinfrast": 5171,
      "Ġrecognize": 5172,
      "Ġformal": 5173,
      "Ġrecovery": 5174,
      "Ġconsists": 5175,
      "Ġaer": 5176,
      "Ġgather": 5177,
      "Ġbattery": 5178,
      "Ġcrime": 5179,
      "Ġstatistics": 5180,
      "Ġnine": 5181,
      "ipped": 5182,
      "tering": 5183,
      ".âĢĻ": 5184,
      "Ġprepare": 5185,
      "Ġfasc": 5186,
      "Ġpossess": 5187,
      "Ġinfected": 5188,
      "Ġcandid": 5189,
      "itz": 5190,
      "Ġexpensive": 5191,
      "].": 5192,
      "ficial": 5193,
      "Ġthy": 5194,
      "ario": 5195,
      "Ġaccepted": 5196,
      "Ġcopy": 5197,
      "Ġmars": 5198,
      "Ġpolitics": 5199,
      "rat": 5200,
      "Ġgh": 5201,
      "Ġwed": 5202,
      "Ġrid": 5203,
      "Ġdeliver": 5204,
      "Ġran": 5205,
      "Ġcolour": 5206,
      "Ġheritage": 5207,
      "Ġgro": 5208,
      "athy": 5209,
      "oh": 5210,
      "Ġ45": 5211,
      "Ġterritory": 5212,
      "Ġtrop": 5213,
      "Ġcenters": 5214,
      "racy": 5215,
      "Ġwol": 5216,
      "Ġextract": 5217,
      "48": 5218,
      "Ġtoler": 5219,
      "bel": 5220,
      "Ġinflammation": 5221,
      "ooth": 5222,
      "Ġhat": 5223,
      "Ġchoices": 5224,
      "celer": 5225,
      "Ġproducing": 5226,
      "Ġzone": 5227,
      "born": 5228,
      "Ġtwenty": 5229,
      "Ġveter": 5230,
      "Ġwalking": 5231,
      "Ġinstitution": 5232,
      "Ġinsight": 5233,
      "Ġrapidly": 5234,
      "Ġimpossible": 5235,
      "Ġlifest": 5236,
      "Ġunfortunately": 5237,
      "Ġeld": 5238,
      "ota": 5239,
      "39": 5240,
      "Ġforests": 5241,
      "ike": 5242,
      "olester": 5243,
      "usive": 5244,
      "Ġps": 5245,
      "Ġworse": 5246,
      "Ġreader": 5247,
      "Ġparli": 5248,
      "Ġdental": 5249,
      "Ġye": 5250,
      "dra": 5251,
      "Ġcapable": 5252,
      "Ġrepeated": 5253,
      "Ġmedications": 5254,
      "Ġdiscussed": 5255,
      "Ġphotograph": 5256,
      "state": 5257,
      "Ġcamera": 5258,
      "Ġmountains": 5259,
      "Ġsurvive": 5260,
      "Ġunknown": 5261,
      "Ġuns": 5262,
      "Ġdepends": 5263,
      "Ġwindow": 5264,
      "Ġvirginia": 5265,
      "Ġflorida": 5266,
      "Ġsets": 5267,
      "Ġcircumst": 5268,
      "fare": 5269,
      "right": 5270,
      "americ": 5271,
      "Ġhoriz": 5272,
      "Ġstanding": 5273,
      "ascular": 5274,
      "Ġaward": 5275,
      "65": 5276,
      "lers": 5277,
      "roll": 5278,
      "Ġbroken": 5279,
      "Ġpowers": 5280,
      "Ġtall": 5281,
      "Ġdoor": 5282,
      "agues": 5283,
      "Ġingred": 5284,
      "Ġraw": 5285,
      "Ġnarrow": 5286,
      "Ġunderstood": 5287,
      "ÃŃ": 5288,
      "Ġimagine": 5289,
      "Ġ188": 5290,
      "Ġshell": 5291,
      "cture": 5292,
      "Ġwitness": 5293,
      "Ġcrow": 5294,
      "Ġjourney": 5295,
      "Ġarms": 5296,
      "olesterol": 5297,
      "Ġlun": 5298,
      "Ġafford": 5299,
      "inations": 5300,
      "Ġbutter": 5301,
      "Ġfilled": 5302,
      "Ġabst": 5303,
      "Ġopened": 5304,
      "Ġcup": 5305,
      "Ġsmoking": 5306,
      "anes": 5307,
      "eper": 5308,
      "Ġworldwide": 5309,
      "Ġslowly": 5310,
      "Ġcars": 5311,
      "Ġwik": 5312,
      "inet": 5313,
      "Ġcm": 5314,
      "ona": 5315,
      "Ġoutcomes": 5316,
      "Ġreject": 5317,
      "Ġcalcium": 5318,
      "Ġyounger": 5319,
      "Ġlie": 5320,
      "Ġedge": 5321,
      "Ġparis": 5322,
      "Ġentirely": 5323,
      "Ġacceler": 5324,
      "Ġvaluable": 5325,
      "Ġinvestment": 5326,
      "eless": 5327,
      "Ġplus": 5328,
      "Ġsell": 5329,
      "ras": 5330,
      "Ġ31": 5331,
      "Ġsteel": 5332,
      "Ġparam": 5333,
      "Ġtan": 5334,
      "cules": 5335,
      "Ġcomments": 5336,
      "Ġdecline": 5337,
      "Ġcham": 5338,
      "aria": 5339,
      "ava": 5340,
      "Ġrome": 5341,
      "oted": 5342,
      "stream": 5343,
      "Ġqueen": 5344,
      "Ġwants": 5345,
      "idden": 5346,
      "Ġparliament": 5347,
      "Ġselection": 5348,
      "look": 5349,
      "Ġdebate": 5350,
      "Ġ>": 5351,
      "Ġwid": 5352,
      "Ġapproaches": 5353,
      "37": 5354,
      "Ġperce": 5355,
      "ancing": 5356,
      "Ġaudience": 5357,
      "exp": 5358,
      "stein": 5359,
      "Ġdaughter": 5360,
      "osen": 5361,
      "Ġsecure": 5362,
      "Ġfold": 5363,
      "reed": 5364,
      "Ġepid": 5365,
      "Ġcab": 5366,
      "Ġmaps": 5367,
      "Ġcanadian": 5368,
      "Ġshut": 5369,
      "Ġcollabor": 5370,
      "Ġstomach": 5371,
      "Ġmun": 5372,
      "iology": 5373,
      "Ġinfrastructure": 5374,
      "Ġapprec": 5375,
      "Ġinject": 5376,
      "Ġfailed": 5377,
      "Ġdefense": 5378,
      "Ġflav": 5379,
      "Ġpus": 5380,
      "Ġcholesterol": 5381,
      "Ġinjuries": 5382,
      "Ġparties": 5383,
      "Ġartific": 5384,
      "Ġcomprehensive": 5385,
      "erals": 5386,
      "Ġba": 5387,
      "Ġremote": 5388,
      "Ġgone": 5389,
      "Ġexcl": 5390,
      "Ġtwice": 5391,
      "Ġwish": 5392,
      "Ġstrengthe": 5393,
      "Ġnic": 5394,
      "Ġboost": 5395,
      "Ġadequ": 5396,
      "Ġedition": 5397,
      "Ġsilver": 5398,
      "Ġdesire": 5399,
      "Ġfu": 5400,
      "Ġadopted": 5401,
      "sen": 5402,
      "Ġdiscipl": 5403,
      "Ġfalse": 5404,
      "Ġwhereas": 5405,
      "Ġhydrogen": 5406,
      "Ġopposite": 5407,
      "Ġire": 5408,
      "Ġnetworks": 5409,
      "icit": 5410,
      "Ġclosed": 5411,
      "Ġabund": 5412,
      "Ġfacilit": 5413,
      "Ġregularly": 5414,
      "Ġfiber": 5415,
      "Ġbread": 5416,
      "Ġshop": 5417,
      "Ġhonor": 5418,
      "Ġopening": 5419,
      "Ġchic": 5420,
      "Ġtroops": 5421,
      "Ġpossibility": 5422,
      "Ġrose": 5423,
      "Ġdescribes": 5424,
      "Ġstages": 5425,
      "Ġarchitecture": 5426,
      "Ġped": 5427,
      "Ġfighting": 5428,
      "Ġadoles": 5429,
      "Ġobst": 5430,
      "Ġframework": 5431,
      "Ġsar": 5432,
      "Ġstarts": 5433,
      "Ġlatter": 5434,
      "phone": 5435,
      "uted": 5436,
      "44": 5437,
      "Ġwaves": 5438,
      "Ġthousand": 5439,
      "Ġprecise": 5440,
      "Ġjoseph": 5441,
      "Ġital": 5442,
      "ada": 5443,
      "Ġprocedures": 5444,
      "Ġpermanent": 5445,
      "quit": 5446,
      "Ġcreates": 5447,
      "flow": 5448,
      "Ġwww": 5449,
      "99": 5450,
      "Ġsurf": 5451,
      "08": 5452,
      "Ġremaining": 5453,
      "Ġethnic": 5454,
      "road": 5455,
      "Ġdrawing": 5456,
      "Ġles": 5457,
      "Ġclub": 5458,
      "Ġbell": 5459,
      "Ġmes": 5460,
      "Ġchrom": 5461,
      "Ġlisted": 5462,
      "Ġpsychological": 5463,
      "Ġbrand": 5464,
      "Ġgenet": 5465,
      "pass": 5466,
      "Ġmu": 5467,
      "Ġequival": 5468,
      "Ġskill": 5469,
      "vi": 5470,
      "Ġrice": 5471,
      "Ġexpans": 5472,
      "Ġcomparison": 5473,
      "Ġdecide": 5474,
      "ki": 5475,
      "Ġteen": 5476,
      "Ġindu": 5477,
      "Ġknowing": 5478,
      "isp": 5479,
      "Ġsuccessfully": 5480,
      "Ġimproving": 5481,
      "while": 5482,
      "illing": 5483,
      "Ġms": 5484,
      "Ġmixed": 5485,
      "Ġstruggle": 5486,
      "Ġrivers": 5487,
      "she": 5488,
      "Ġorient": 5489,
      "500": 5490,
      "orter": 5491,
      "Ġrig": 5492,
      "Ġwilling": 5493,
      "Ġboys": 5494,
      "Ġwriter": 5495,
      "Ġserver": 5496,
      "normal": 5497,
      "Ġna": 5498,
      "agers": 5499,
      "Ġfrancis": 5500,
      "Ġdepos": 5501,
      "Ġinsects": 5502,
      "Ġturns": 5503,
      "ctic": 5504,
      "Ġoccasion": 5505,
      "last": 5506,
      "Ġmas": 5507,
      "ua": 5508,
      "Ġexpressed": 5509,
      "Ġenhance": 5510,
      "ĠÂ·": 5511,
      "Ġfossil": 5512,
      "Ġment": 5513,
      "Ġpharm": 5514,
      "Ġsensitive": 5515,
      "Ġrichard": 5516,
      "Ġdestroyed": 5517,
      "dered": 5518,
      "Ġdoubt": 5519,
      "Ġsentence": 5520,
      "Ġdiction": 5521,
      "Ġinhab": 5522,
      "Ġknows": 5523,
      "Ġcultiv": 5524,
      "Ġmedication": 5525,
      "kin": 5526,
      "Ġcritic": 5527,
      "Ġacids": 5528,
      "Ġireland": 5529,
      "Äģ": 5530,
      "rors": 5531,
      "Ġpapers": 5532,
      "Ġassembly": 5533,
      "Ġfourth": 5534,
      "Ġourselves": 5535,
      "itudes": 5536,
      "Ġborder": 5537,
      "ibilities": 5538,
      "Ġpreval": 5539,
      "Ġconventional": 5540,
      "76": 5541,
      "Ġassistance": 5542,
      "pre": 5543,
      "Ġincl": 5544,
      "zen": 5545,
      "Ġrising": 5546,
      "cope": 5547,
      "Ġfest": 5548,
      "Ġmanaged": 5549,
      "Ġ300": 5550,
      "Ġevaluation": 5551,
      "asive": 5552,
      "anda": 5553,
      "ules": 5554,
      "Ġvictor": 5555,
      "ogue": 5556,
      "Ġol": 5557,
      "Ġnoise": 5558,
      "emic": 5559,
      "Ġfounded": 5560,
      "Ġbib": 5561,
      "Ġchain": 5562,
      "Ġinner": 5563,
      "Ġpron": 5564,
      "Ġnerve": 5565,
      "Ġsolve": 5566,
      "Ġaccounts": 5567,
      "Ġmont": 5568,
      "Ġintervention": 5569,
      "Ġbc": 5570,
      "Ġrefuge": 5571,
      "Ġ500": 5572,
      "Ġcards": 5573,
      "Ġmm": 5574,
      "Ġstudying": 5575,
      "Ġinhib": 5576,
      "Ġremark": 5577,
      "Ġinfant": 5578,
      "Ġattend": 5579,
      "Ġscot": 5580,
      "Ġly": 5581,
      "active": 5582,
      "Ġachieved": 5583,
      "Ġplays": 5584,
      "ari": 5585,
      "Ġtut": 5586,
      "Ġcircle": 5587,
      "Ġparalle": 5588,
      "Ġblo": 5589,
      "Ġusa": 5590,
      "Ġvehicles": 5591,
      "they": 5592,
      "Ġash": 5593,
      "Ġrhy": 5594,
      "Ġorbit": 5595,
      "Ġratio": 5596,
      "Ġvote": 5597,
      "Ġcarefully": 5598,
      "igenous": 5599,
      "Ġextended": 5600,
      "Ġbusinesses": 5601,
      "Ġmagaz": 5602,
      "32": 5603,
      "Ġpsychology": 5604,
      "Ġsequence": 5605,
      "Ġgluc": 5606,
      "Ġhousing": 5607,
      "Ġinteraction": 5608,
      "Ġneck": 5609,
      "Ġmarked": 5610,
      "Ġwasn": 5611,
      "ini": 5612,
      "inction": 5613,
      "ey": 5614,
      "Ġdefe": 5615,
      "Ġdiverse": 5616,
      "Ġelectron": 5617,
      "Ġdifficulty": 5618,
      "Ġdecade": 5619,
      "Ġmichael": 5620,
      "Ġsheet": 5621,
      "Ġaustralian": 5622,
      "Ġfewer": 5623,
      "hma": 5624,
      "Ġcomposition": 5625,
      "Ġdebt": 5626,
      "iform": 5627,
      "ashion": 5628,
      "Ġfeeding": 5629,
      "Ġgreatly": 5630,
      "reen": 5631,
      "Ġscar": 5632,
      "Ġderived": 5633,
      "Ġcircuit": 5634,
      "Ġscene": 5635,
      "iac": 5636,
      "46": 5637,
      "Ġrestrict": 5638,
      "bc": 5639,
      "Ġtransmission": 5640,
      "Ġvirtual": 5641,
      "hand": 5642,
      "Ġcrucial": 5643,
      "vis": 5644,
      "Ġgenerate": 5645,
      "Ġelectro": 5646,
      "iah": 5647,
      "iration": 5648,
      "Ġcourses": 5649,
      "Ġemployees": 5650,
      "Ġearthqu": 5651,
      "31": 5652,
      "Ġpm": 5653,
      "Ġminim": 5654,
      "ifies": 5655,
      "Ġcalories": 5656,
      "Ġmechanism": 5657,
      "Ġtransition": 5658,
      "Ġdiff": 5659,
      "Ġmerc": 5660,
      "Ġeditor": 5661,
      "uses": 5662,
      "ogy": 5663,
      "Ġacknow": 5664,
      "Ġuniversal": 5665,
      "Ġconsistent": 5666,
      "Ġsharing": 5667,
      "Ġmild": 5668,
      "Ġprime": 5669,
      "Ġmanufacturing": 5670,
      "lets": 5671,
      "Ġputting": 5672,
      "Ġimmediate": 5673,
      "under": 5674,
      "Ġshift": 5675,
      "inity": 5676,
      "Ġzero": 5677,
      "Ġunable": 5678,
      "Ġconsumer": 5679,
      "Ġstands": 5680,
      "Ġproduces": 5681,
      "irect": 5682,
      "Ġhypothes": 5683,
      "Ġsund": 5684,
      "Ġunus": 5685,
      "Ġcoffee": 5686,
      "rd": 5687,
      "teen": 5688,
      "rants": 5689,
      "Ġcoordin": 5690,
      "Ġcultures": 5691,
      "Ġfixed": 5692,
      "Ġsupposed": 5693,
      "Ġmice": 5694,
      "Ġshot": 5695,
      "agon": 5696,
      "Ġcolumb": 5697,
      ".|": 5698,
      "Ġbath": 5699,
      "Ġcutting": 5700,
      "jo": 5701,
      "ih": 5702,
      "icide": 5703,
      "Ġarrived": 5704,
      "Ġstored": 5705,
      "Ġpersist": 5706,
      "Ġreplaced": 5707,
      "Ġroutine": 5708,
      "Ġdent": 5709,
      "Ġregist": 5710,
      "aching": 5711,
      "heim": 5712,
      "Ġlocations": 5713,
      "Ġhung": 5714,
      "Ġcloser": 5715,
      "hered": 5716,
      "Ġblind": 5717,
      "Ġsmoke": 5718,
      "cling": 5719,
      "organ": 5720,
      "55": 5721,
      "Ġprotocol": 5722,
      "Ġlies": 5723,
      "Ġmolecules": 5724,
      "Ġconsumers": 5725,
      "Ġmarried": 5726,
      "inter": 5727,
      "Ġ1980": 5728,
      "Ġtransportation": 5729,
      "Ġbeliefs": 5730,
      "Ġaccident": 5731,
      "Ġcolleagues": 5732,
      "Ġbiggest": 5733,
      "Ġforg": 5734,
      "uous": 5735,
      "Ġearl": 5736,
      "kins": 5737,
      "Ġorth": 5738,
      "Ġsacr": 5739,
      "Ġiii": 5740,
      "Ġtrip": 5741,
      "Ġfabric": 5742,
      "Ġ1999": 5743,
      "Ġsupreme": 5744,
      "Ġauthorities": 5745,
      "âĢĻ,": 5746,
      "Ġfever": 5747,
      "Ġends": 5748,
      "Ġlifestyle": 5749,
      "olve": 5750,
      "Ġobtain": 5751,
      "Ġfeedback": 5752,
      "Ġpurchase": 5753,
      "Ġmeal": 5754,
      "47": 5755,
      "Ġske": 5756,
      "Ġnecessarily": 5757,
      "Ġfract": 5758,
      "Ġconclusion": 5759,
      "Ġmachines": 5760,
      "Ġinstructions": 5761,
      "Ġimprovement": 5762,
      "Ġbeneficial": 5763,
      "Ġindigenous": 5764,
      "Ġpoison": 5765,
      "Ġnavig": 5766,
      "osal": 5767,
      "Ġcircumstances": 5768,
      "Ġresponses": 5769,
      "Ġforget": 5770,
      "Ġstroke": 5771,
      "osph": 5772,
      "Ġsignals": 5773,
      "Ġlin": 5774,
      "Ġchosen": 5775,
      "gans": 5776,
      "Ġyog": 5777,
      "Ġchick": 5778,
      "pub": 5779,
      "Ġsuitable": 5780,
      "Ġemotions": 5781,
      "Ġindicates": 5782,
      "Ġvel": 5783,
      "Ġregul": 5784,
      "bu": 5785,
      "Ġcompare": 5786,
      "Ġtraum": 5787,
      "Ġfo": 5788,
      "Ġharmful": 5789,
      "Ġagencies": 5790,
      "cher": 5791,
      "tenance": 5792,
      "Ġcompetition": 5793,
      "Ġwait": 5794,
      "erative": 5795,
      "Ġgrew": 5796,
      "Ġmanif": 5797,
      "49": 5798,
      "Ġships": 5799,
      "Ġattached": 5800,
      "Ġvolcan": 5801,
      "Ġcav": 5802,
      "ache": 5803,
      "stone": 5804,
      "Ġsoul": 5805,
      "Ġahead": 5806,
      "Ġalph": 5807,
      "cal": 5808,
      "Ġfalls": 5809,
      "tles": 5810,
      "Ġ36": 5811,
      "Ġdensity": 5812,
      "Ġsimpl": 5813,
      "break": 5814,
      "asure": 5815,
      "Ġestimates": 5816,
      "Ġpc": 5817,
      "Ġexists": 5818,
      "Ġ1970": 5819,
      "Ġwars": 5820,
      "Ġintellectual": 5821,
      "Ġjudge": 5822,
      "Ġvariable": 5823,
      "Ġitaly": 5824,
      "Ġemper": 5825,
      "Ġov": 5826,
      "Ġpainting": 5827,
      "Ġhabits": 5828,
      "Ġmarg": 5829,
      "Ġcoc": 5830,
      "Ġconfidence": 5831,
      "teries": 5832,
      "Ġacademy": 5833,
      "Ġsla": 5834,
      "Ġmagnetic": 5835,
      "Ġsupplies": 5836,
      "ston": 5837,
      "Ġcontroll": 5838,
      "ita": 5839,
      "ek": 5840,
      "Ġcompounds": 5841,
      "Ġharvest": 5842,
      "Ġbabies": 5843,
      "Ġtrials": 5844,
      "Ġspok": 5845,
      "Ġpenn": 5846,
      "inated": 5847,
      "Ġcrown": 5848,
      "being": 5849,
      "Ġexecutive": 5850,
      "Ġvolt": 5851,
      "Ġpublication": 5852,
      "usal": 5853,
      "Ġliteracy": 5854,
      "Ġswim": 5855,
      "ented": 5856,
      "Ġprofessionals": 5857,
      "health": 5858,
      "Ġroof": 5859,
      "Ġpercentage": 5860,
      "Ġhoney": 5861,
      "Ġdedicated": 5862,
      "Ġautism": 5863,
      "Ġorganized": 5864,
      "Ġgenerated": 5865,
      "Ġartificial": 5866,
      "Ġresolution": 5867,
      "Ġmathematics": 5868,
      "Ġcod": 5869,
      "oster": 5870,
      "Ġbless": 5871,
      "Ġpassage": 5872,
      "Ġdar": 5873,
      "Ġbind": 5874,
      "Ġtaste": 5875,
      "Ġscott": 5876,
      "Ġheaven": 5877,
      "elled": 5878,
      "Ġring": 5879,
      "Ġeveryday": 5880,
      "Ġcats": 5881,
      "Ġlimits": 5882,
      "Ġregulations": 5883,
      "bour": 5884,
      "exam": 5885,
      "rain": 5886,
      "Ġprogramming": 5887,
      "Ġspain": 5888,
      "Ġadvent": 5889,
      "Ùİ": 5890,
      "Ġmales": 5891,
      "indu": 5892,
      "abul": 5893,
      "Ġgap": 5894,
      "Ġmatters": 5895,
      "Ġprompt": 5896,
      "pes": 5897,
      "cell": 5898,
      "Ġrelax": 5899,
      "Ġvessels": 5900,
      "Ġenvironments": 5901,
      "Ġoptim": 5902,
      "Ġprove": 5903,
      "Ġcommunicate": 5904,
      "Ġforth": 5905,
      "Ġbanks": 5906,
      "Ġhors": 5907,
      "Ġpool": 5908,
      "Ġcree": 5909,
      "ribed": 5910,
      "Ġmaintenance": 5911,
      "Ġrepresented": 5912,
      "Ġcot": 5913,
      "Ġevil": 5914,
      "Ġroute": 5915,
      "Ġseat": 5916,
      "bec": 5917,
      "sey": 5918,
      "Ġtheme": 5919,
      "Ġwis": 5920,
      "Ġdele": 5921,
      "Ġparticipate": 5922,
      "bridge": 5923,
      "Ġimplementation": 5924,
      "Ġdesert": 5925,
      "Ġamazing": 5926,
      "Ġexplanation": 5927,
      "'m": 5928,
      "Ġcatch": 5929,
      "Ġinsulin": 5930,
      "Ġnest": 5931,
      "Ġrecognition": 5932,
      "hetic": 5933,
      "print": 5934,
      "Ġusage": 5935,
      "Ġchicago": 5936,
      "Ġended": 5937,
      "zed": 5938,
      "Ġmatch": 5939,
      "clop": 5940,
      "Ġbehaviors": 5941,
      "Ġrequest": 5942,
      "isters": 5943,
      "Ġhole": 5944,
      "Ġneuro": 5945,
      "Ġcompr": 5946,
      "aped": 5947,
      "etime": 5948,
      "Ġaccum": 5949,
      "Ġseemed": 5950,
      "Ġdisaster": 5951,
      "Ġyield": 5952,
      "Ġsport": 5953,
      "ums": 5954,
      "Ġprogramme": 5955,
      "Ġbreathing": 5956,
      "Ġjoined": 5957,
      "Ġequivalent": 5958,
      "Ġspending": 5959,
      "Ġelection": 5960,
      "77": 5961,
      "Ġgenerations": 5962,
      "Ġturning": 5963,
      "Ġtub": 5964,
      "95": 5965,
      "level": 5966,
      "Ġdys": 5967,
      "Ġlegs": 5968,
      "Ġcontained": 5969,
      "fish": 5970,
      "Ġta": 5971,
      "Ġsupporting": 5972,
      "Ġsharp": 5973,
      "Ġtag": 5974,
      "rem": 5975,
      "Ġconnections": 5976,
      "Ġdistur": 5977,
      "Ġemployment": 5978,
      "Ġslavery": 5979,
      "anta": 5980,
      "Ġobservations": 5981,
      "Ġzeal": 5982,
      "Ġstimul": 5983,
      "Ġshad": 5984,
      "orous": 5985,
      "Ġsmooth": 5986,
      "Ġhandle": 5987,
      "Ġlaunched": 5988,
      "Ġ1960": 5989,
      "Ġsenior": 5990,
      "Ġvac": 5991,
      "ird": 5992,
      "Ġrank": 5993,
      "Ġentry": 5994,
      "idering": 5995,
      "eters": 5996,
      "Ġholding": 5997,
      "Ġdefine": 5998,
      "Ġstring": 5999,
      "Ġgreenhouse": 6000,
      "nat": 6001,
      "Ġoutdo": 6002,
      "osa": 6003,
      "Ġinsurance": 6004,
      "Ġdelay": 6005,
      "Ġ32": 6006,
      "Ġvictims": 6007,
      "gers": 6008,
      "Ġcas": 6009,
      "Ġreactions": 6010,
      "Ġcontemporary": 6011,
      "Ġfunctional": 6012,
      "Ġmolecular": 6013,
      "Ġbeauty": 6014,
      "Ġdictionary": 6015,
      "Ġclar": 6016,
      "Ġexpansion": 6017,
      "Ġprotest": 6018,
      "usions": 6019,
      "Ġnearby": 6020,
      "ishment": 6021,
      "Ġadm": 6022,
      "Ġdemocratic": 6023,
      "Ġcoastal": 6024,
      "Ġcrim": 6025,
      "Ġmissing": 6026,
      "Ġlu": 6027,
      "Ġartists": 6028,
      "using": 6029,
      "raction": 6030,
      "Ġrelief": 6031,
      "Ġtv": 6032,
      "Ġslave": 6033,
      "weight": 6034,
      "fit": 6035,
      "Ġessentially": 6036,
      "Ġsatur": 6037,
      "Ġenable": 6038,
      "Ġissued": 6039,
      "Ġasking": 6040,
      "oned": 6041,
      "unt": 6042,
      "ocy": 6043,
      "Ġirish": 6044,
      "Ġindo": 6045,
      "Ã¼": 6046,
      "Ġterror": 6047,
      "Ġobjective": 6048,
      "Ġhealthcare": 6049,
      "Ġexamine": 6050,
      "Ġmeasurement": 6051,
      "Ġsty": 6052,
      "Ġpanel": 6053,
      "Ġdiagnosed": 6054,
      "Ġbranch": 6055,
      "Ġinitially": 6056,
      "Ġfashion": 6057,
      "Ġparas": 6058,
      "oul": 6059,
      "Ġvs": 6060,
      "Ġpup": 6061,
      "Ġfemales": 6062,
      "Ġdeclared": 6063,
      "Ġtexts": 6064,
      "umes": 6065,
      "luding": 6066,
      "Ġdrawn": 6067,
      "when": 6068,
      "lv": 6069,
      "Ġhusband": 6070,
      "Ġhang": 6071,
      "Ġkne": 6072,
      "Ġexperimental": 6073,
      "Ġpregnant": 6074,
      "Ġinstruments": 6075,
      "Ġworksh": 6076,
      "Ġdemonstrate": 6077,
      "Ġtrouble": 6078,
      "top": 6079,
      "Ġvulnerable": 6080,
      "Ġisbn": 6081,
      "Ġorganisms": 6082,
      "Ġchristmas": 6083,
      "Ġkar": 6084,
      "Ġchannel": 6085,
      "Ġmoreover": 6086,
      "Ġconsidering": 6087,
      "mony": 6088,
      "Ġdanger": 6089,
      "Ġcontamin": 6090,
      "from": 6091,
      "Ġkidney": 6092,
      "Ġdioxide": 6093,
      "itely": 6094,
      "Ġstable": 6095,
      "Ġdemonstrated": 6096,
      "Ġlibert": 6097,
      "Ġcarolina": 6098,
      "Ġsupports": 6099,
      "Ġscientist": 6100,
      "Ġsaint": 6101,
      "Ġexercises": 6102,
      "Ġcryst": 6103,
      "cons": 6104,
      "Ġbeings": 6105,
      "Ġgirl": 6106,
      "Ġpush": 6107,
      "Ġrelation": 6108,
      "Ġspr": 6109,
      "ritis": 6110,
      "Ġmortality": 6111,
      "Ġcontrovers": 6112,
      "Ġtu": 6113,
      "Ġtrained": 6114,
      "Ġsurprising": 6115,
      "Ġdollars": 6116,
      "Ġtube": 6117,
      "Ġfavorite": 6118,
      "Ġhorizon": 6119,
      "Ġarrange": 6120,
      "Ġmartin": 6121,
      "Ġcord": 6122,
      "Ġmechanisms": 6123,
      "Ġartist": 6124,
      "Ġgent": 6125,
      "Ġresulted": 6126,
      "Ġ1998": 6127,
      "Ġmembr": 6128,
      "mo": 6129,
      "Ġaband": 6130,
      "Ġneur": 6131,
      "icians": 6132,
      "ĠÐ": 6133,
      "Ġcapture": 6134,
      "Ġsole": 6135,
      "Ġadvert": 6136,
      "88": 6137,
      "oral": 6138,
      "Ġextension": 6139,
      "Ġtheories": 6140,
      "ediatric": 6141,
      "rency": 6142,
      "Ġbiom": 6143,
      "Ġflower": 6144,
      "Ġfrequent": 6145,
      "Ġclus": 6146,
      "Ġtank": 6147,
      "Ġfurthermore": 6148,
      "Ġplayers": 6149,
      "Ġchristians": 6150,
      "Ġcategory": 6151,
      "Ġengineers": 6152,
      "Ġapple": 6153,
      "Ġburning": 6154,
      "Ġjump": 6155,
      "Ġlik": 6156,
      "Ġ185": 6157,
      "Ġintegrated": 6158,
      "anches": 6159,
      "Ġshock": 6160,
      "erior": 6161,
      "spec": 6162,
      "Ġparticipation": 6163,
      "Ġscan": 6164,
      "hal": 6165,
      "Ġthank": 6166,
      "Ġchemistry": 6167,
      "Ġhorses": 6168,
      "Ġsettings": 6169,
      "Ġagreed": 6170,
      "Ġvisitors": 6171,
      "Ġcu": 6172,
      "Ġchair": 6173,
      "Ġconcrete": 6174,
      "Ġfisher": 6175,
      "Ġlegislation": 6176,
      "Ġsales": 6177,
      "Ġmode": 6178,
      "called": 6179,
      "Ġremov": 6180,
      "Ġ150": 6181,
      "Ġdivine": 6182,
      "Ġglucose": 6183,
      "Ġconqu": 6184,
      "Ġtight": 6185,
      "Ġdoi": 6186,
      "Ġregardless": 6187,
      "Ġbreath": 6188,
      "Ġrenewable": 6189,
      "Ġspin": 6190,
      "Ġblocks": 6191,
      "Ġcopper": 6192,
      "Ġtheore": 6193,
      "itative": 6194,
      "urt": 6195,
      "Ġorgans": 6196,
      "Ġsummary": 6197,
      "ighter": 6198,
      "edu": 6199,
      "Ġ75": 6200,
      "Ġsomewhat": 6201,
      "Ġdestruction": 6202,
      "Ġsession": 6203,
      "gments": 6204,
      "Ġworship": 6205,
      "rimination": 6206,
      "Ġlearners": 6207,
      "Ġcategories": 6208,
      "Ġislam": 6209,
      "%)": 6210,
      "ione": 6211,
      "Ġinitiative": 6212,
      "Ġruns": 6213,
      "Ġcel": 6214,
      "Ġbol": 6215,
      "osion": 6216,
      "mod": 6217,
      "Ġweapons": 6218,
      "Ġbomb": 6219,
      "Ġexamination": 6220,
      "Ġparallel": 6221,
      "typ": 6222,
      "Ġfacebook": 6223,
      "Ġconvention": 6224,
      "rene": 6225,
      "Ġescape": 6226,
      "Ġamend": 6227,
      "Ġprincipal": 6228,
      "Ġcattle": 6229,
      "abulary": 6230,
      "Ġcort": 6231,
      "Ġmanip": 6232,
      "ifications": 6233,
      "Ġgovernor": 6234,
      "Ġasthma": 6235,
      "Ġbure": 6236,
      "paper": 6237,
      "Ġbrings": 6238,
      "Ġdomain": 6239,
      "Ġrend": 6240,
      "Ġrealize": 6241,
      "lar": 6242,
      "zil": 6243,
      "Ġnaz": 6244,
      "Ġorange": 6245,
      "onia": 6246,
      "Ġchest": 6247,
      "Ġvariables": 6248,
      "bar": 6249,
      "bles": 6250,
      "aming": 6251,
      "orith": 6252,
      "Ġgiant": 6253,
      "rapy": 6254,
      "Ġinvolving": 6255,
      "Ġitem": 6256,
      "Ġquarter": 6257,
      "Ġpounds": 6258,
      "Ġmerely": 6259,
      "bon": 6260,
      "Ġshif": 6261,
      "hum": 6262,
      "abled": 6263,
      "izer": 6264,
      "Ġnice": 6265,
      "Ġunderlying": 6266,
      "Ġrocks": 6267,
      "Ġchlor": 6268,
      "Ġtropical": 6269,
      "iversity": 6270,
      "Ġmetabol": 6271,
      "Ġconstructed": 6272,
      "Ġfulf": 6273,
      "Ġram": 6274,
      "Ġslaves": 6275,
      "Ġsucceed": 6276,
      "Ġworry": 6277,
      "Ġsir": 6278,
      "Ġpartner": 6279,
      "Ġmarkets": 6280,
      "Ġminute": 6281,
      "Ġitalian": 6282,
      "Ġille": 6283,
      "Ġmechanical": 6284,
      "lements": 6285,
      "Ġtelevision": 6286,
      "Ġwheel": 6287,
      "Ġexplo": 6288,
      "ĠâĨ": 6289,
      "Ġbull": 6290,
      "oston": 6291,
      "Ġsignificance": 6292,
      "Ġresident": 6293,
      "heast": 6294,
      "Ġlayers": 6295,
      "Ġpublish": 6296,
      "Ġsubstances": 6297,
      "Ġalgorith": 6298,
      "Ġgut": 6299,
      "Ġgalax": 6300,
      "Ġmuslim": 6301,
      "Ġproof": 6302,
      "Ġseeking": 6303,
      "Ġmicros": 6304,
      "Ġpolar": 6305,
      "enue": 6306,
      "comm": 6307,
      "Ġstatist": 6308,
      "Ġsatellite": 6309,
      "Ġloved": 6310,
      "Ġsections": 6311,
      "Ġwound": 6312,
      "antly": 6313,
      "Ġemperor": 6314,
      "Ġcolumn": 6315,
      "Ġguar": 6316,
      "Ġalign": 6317,
      "Ġtot": 6318,
      "Ġimplications": 6319,
      "Ġbon": 6320,
      "Ġconversation": 6321,
      "Ġfarming": 6322,
      "iov": 6323,
      "Ġscore": 6324,
      "Ġproportion": 6325,
      "Ġmaintaining": 6326,
      "Ġsimilarly": 6327,
      "Ġentered": 6328,
      "ctive": 6329,
      "Ġradical": 6330,
      "Ġoblig": 6331,
      "Ġestimate": 6332,
      "riers": 6333,
      "Ġinsert": 6334,
      "Ġtissues": 6335,
      "Ġparad": 6336,
      "Ġdance": 6337,
      "Ġbringing": 6338,
      "Ġnegot": 6339,
      "Ġrarely": 6340,
      "Ġfacility": 6341,
      "Ġrecept": 6342,
      "Ġoxford": 6343,
      "itter": 6344,
      "Ġofficers": 6345,
      "Ġtons": 6346,
      "Ġmining": 6347,
      "Ġphenomenon": 6348,
      "Ġposted": 6349,
      "Ġholds": 6350,
      "Ġabstract": 6351,
      "Ġgeorg": 6352,
      "Ġdelivery": 6353,
      "Ġdamaged": 6354,
      "Ġstrongly": 6355,
      "Ġswitch": 6356,
      "Ġangle": 6357,
      "dy": 6358,
      "Ġmoves": 6359,
      "Ġcovers": 6360,
      "Ġbeat": 6361,
      "Ġenemy": 6362,
      "Ġrod": 6363,
      "produ": 6364,
      "Ġdefect": 6365,
      "Ġwine": 6366,
      "Ġbees": 6367,
      "Ġstuff": 6368,
      "Ġbeach": 6369,
      "Ġvocabulary": 6370,
      "85": 6371,
      "Ġasp": 6372,
      "oln": 6373,
      "Ġjac": 6374,
      "such": 6375,
      "Ġpartnership": 6376,
      "Ġpreparation": 6377,
      "Ġindians": 6378,
      "________": 6379,
      "Ġmixt": 6380,
      "Ġacute": 6381,
      "don": 6382,
      "oly": 6383,
      "Ġdrain": 6384,
      "Ġgolden": 6385,
      "Ġspectrum": 6386,
      "Ġconfig": 6387,
      "plant": 6388,
      "pread": 6389,
      "Ġwarning": 6390,
      "Ġaids": 6391,
      "Ġinteractions": 6392,
      "Ġconsciousness": 6393,
      "Ġabnormal": 6394,
      "Ġundert": 6395,
      "Ġpreventing": 6396,
      "Ġnervous": 6397,
      "Ġexcessive": 6398,
      "Ġsitting": 6399,
      "Ġasc": 6400,
      "Ġminerals": 6401,
      "irt": 6402,
      "Ġadditionally": 6403,
      "Ġindicated": 6404,
      "Ġemployed": 6405,
      "lines": 6406,
      "Ġpositions": 6407,
      "Ġpeoples": 6408,
      "Ġfunds": 6409,
      "66": 6410,
      "Ġproceed": 6411,
      "Ġracial": 6412,
      "Ġattempts": 6413,
      "Ġcooking": 6414,
      "Ġtong": 6415,
      "Ġmine": 6416,
      "Ġassume": 6417,
      "Ġpond": 6418,
      "Ġreduces": 6419,
      "rooms": 6420,
      "Ġsubstit": 6421,
      "anged": 6422,
      "idespread": 6423,
      "Ġrepair": 6424,
      "aked": 6425,
      "ails": 6426,
      "Ġofficer": 6427,
      "rog": 6428,
      "Ġell": 6429,
      "Ġshapes": 6430,
      "Ġnose": 6431,
      "Ġcriminal": 6432,
      "Ġasian": 6433,
      "ressive": 6434,
      "Ġfurn": 6435,
      "Ġtip": 6436,
      "Ġfacing": 6437,
      "Ġcriteria": 6438,
      "Ġric": 6439,
      "Ġempt": 6440,
      "Ġannounced": 6441,
      "iratory": 6442,
      "Ġpotat": 6443,
      "Ġcarrying": 6444,
      "42": 6445,
      "writ": 6446,
      "Ġcommitted": 6447,
      "Ġsi": 6448,
      "Ġplenty": 6449,
      "Ġouter": 6450,
      "Ġinnovation": 6451,
      "Ġstrict": 6452,
      "Ġantibiotics": 6453,
      "Ġthorough": 6454,
      "Ġmd": 6455,
      "Ġrit": 6456,
      "Ġcow": 6457,
      "Ġmyst": 6458,
      "79": 6459,
      "gical": 6460,
      "Ġmusical": 6461,
      "Ġency": 6462,
      "Ġministry": 6463,
      "Ġwidespread": 6464,
      ".'": 6465,
      "Ġwriters": 6466,
      "ivered": 6467,
      "Ġformula": 6468,
      "Ġgramm": 6469,
      "Ġsevent": 6470,
      "class": 6471,
      "Ġopposed": 6472,
      "amins": 6473,
      "Ġprovince": 6474,
      "Ġos": 6475,
      "Ġdim": 6476,
      "Ġmeasurements": 6477,
      "Ġgrid": 6478,
      "Ġserving": 6479,
      "Ġspaces": 6480,
      "Ġadvis": 6481,
      "Ã³": 6482,
      "Ġlakes": 6483,
      "Ġreward": 6484,
      "ymph": 6485,
      "ipping": 6486,
      "Ġdietary": 6487,
      "89": 6488,
      "Ġpel": 6489,
      "Ġcontinuous": 6490,
      "Ġinher": 6491,
      "Ġ1997": 6492,
      "Ġoutbreak": 6493,
      "Ġroughly": 6494,
      "Ġdecor": 6495,
      "ala": 6496,
      "Ġremed": 6497,
      "Ġmessages": 6498,
      "Ġclothing": 6499,
      "american": 6500,
      "Ġadequate": 6501,
      "Ġdemocracy": 6502,
      "Ġviet": 6503,
      "Ġreceiving": 6504,
      "Ġguarant": 6505,
      "Ġbron": 6506,
      "Ġcareful": 6507,
      "Ġdesigns": 6508,
      "Ġstronger": 6509,
      "Ġgradually": 6510,
      "Ġintest": 6511,
      "ipedia": 6512,
      "Ġbuff": 6513,
      "Ġscreening": 6514,
      "Ġongoing": 6515,
      "Ġdiscrimination": 6516,
      "di": 6517,
      "Ġcontrols": 6518,
      "Ġuncertain": 6519,
      "Ġrecommendations": 6520,
      "Ġplot": 6521,
      "herent": 6522,
      "Ġboston": 6523,
      "Ġsuperior": 6524,
      "apse": 6525,
      "Ġproven": 6526,
      "Ġvideos": 6527,
      "Ġdistributed": 6528,
      "Ġequally": 6529,
      "Ġdrag": 6530,
      "bac": 6531,
      "Ġsigned": 6532,
      "Ġguidance": 6533,
      "umps": 6534,
      "Ġarrest": 6535,
      "Ġton": 6536,
      "trans": 6537,
      "Ġjun": 6538,
      "omin": 6539,
      "Ġhealing": 6540,
      "Ġpresents": 6541,
      "Ġcomposed": 6542,
      "Ġclassical": 6543,
      "Ġsubsequent": 6544,
      "eenth": 6545,
      "Ġapproved": 6546,
      "Ġoffering": 6547,
      "Ġmg": 6548,
      "Ġlights": 6549,
      "Ġinstalled": 6550,
      "Ġpak": 6551,
      "Ġmarks": 6552,
      "Ġpassing": 6553,
      "Ġindustries": 6554,
      "cking": 6555,
      "Ġfinished": 6556,
      "tw": 6557,
      "Ġlaid": 6558,
      "Ġcolonial": 6559,
      "Ġdeeper": 6560,
      "Ġviruses": 6561,
      "Ġhunting": 6562,
      "Ġreferences": 6563,
      "Ġmoisture": 6564,
      "Ġfishing": 6565,
      "Ġmosquit": 6566,
      "Ġfairly": 6567,
      "Ġinterpretation": 6568,
      "Ġbigger": 6569,
      "Ġvoltage": 6570,
      "Ġengaged": 6571,
      "standing": 6572,
      "Ġmothers": 6573,
      "Ġatlantic": 6574,
      "kind": 6575,
      "Ġproved": 6576,
      "Ġger": 6577,
      "Ġbrazil": 6578,
      "Ġtreating": 6579,
      "Ġdependent": 6580,
      "Ġconfed": 6581,
      "Ġinqu": 6582,
      "Ġlistening": 6583,
      "Ġjoy": 6584,
      "Ġhind": 6585,
      "Ġinfluenced": 6586,
      "Ġmagazine": 6587,
      "43": 6588,
      "Ġobservation": 6589,
      "Ġthrow": 6590,
      "Ġclaimed": 6591,
      "Ġunusual": 6592,
      "Ġroads": 6593,
      "acing": 6594,
      "Ġintense": 6595,
      "Ġdelivered": 6596,
      "Ġneighborhood": 6597,
      "Ġtraditions": 6598,
      "Ġremoval": 6599,
      "Ġsecretary": 6600,
      "Ġplain": 6601,
      "Ġconstantly": 6602,
      "ket": 6603,
      "Ġwheat": 6604,
      "Ġtract": 6605,
      "Ġinvestigation": 6606,
      "Ġoperate": 6607,
      "Ġ400": 6608,
      "usalem": 6609,
      "Ġsought": 6610,
      "Ġdy": 6611,
      "Ġincred": 6612,
      "Ġmold": 6613,
      "incoln": 6614,
      "Ġflour": 6615,
      "emia": 6616,
      "Ġsplit": 6617,
      "Ġfellow": 6618,
      "Ġbranches": 6619,
      "Ġinterpre": 6620,
      "Ġirrit": 6621,
      "Ġinspired": 6622,
      "Ġsteam": 6623,
      "Ġtranslation": 6624,
      "Ġagents": 6625,
      "Ġmeters": 6626,
      "Ġbreeding": 6627,
      "Ġencouraged": 6628,
      "Ġjul": 6629,
      "Ġathlet": 6630,
      "scale": 6631,
      "Ġcotton": 6632,
      "Ġcorrel": 6633,
      "Ġoutcome": 6634,
      "Ġtreaty": 6635,
      "ulty": 6636,
      "inson": 6637,
      "Ġzealand": 6638,
      "Ġsuffered": 6639,
      "igan": 6640,
      "Ġnewly": 6641,
      "Ġsensit": 6642,
      "Ġgrows": 6643,
      "cr": 6644,
      "html": 6645,
      "ĠÂ©": 6646,
      "Ġluck": 6647,
      "Ġelected": 6648,
      "Ġprohib": 6649,
      "05": 6650,
      "hor": 6651,
      "ohyd": 6652,
      "Ġheads": 6653,
      "nut": 6654,
      "Ġplane": 6655,
      "Ġconcerning": 6656,
      "Ġmond": 6657,
      "Ġlee": 6658,
      "Ġcaptured": 6659,
      "rend": 6660,
      "Ġgosp": 6661,
      "Ġcommunications": 6662,
      "Ġelder": 6663,
      "Ġteles": 6664,
      "ograp": 6665,
      "vey": 6666,
      "Ġidentification": 6667,
      "Ġcha": 6668,
      "example": 6669,
      "Ġplanets": 6670,
      "Ġcorner": 6671,
      "Ġjeff": 6672,
      "Ġplanned": 6673,
      "heimer": 6674,
      "Ġwisdom": 6675,
      "Ġturb": 6676,
      "orph": 6677,
      "Ġhidden": 6678,
      "Ġantio": 6679,
      "Ġbish": 6680,
      "Ġgranted": 6681,
      "Ġcaught": 6682,
      "Ġgast": 6683,
      "Ġmineral": 6684,
      "Ġinteractive": 6685,
      "Ġplayer": 6686,
      "Ġ65": 6687,
      "Ġprominent": 6688,
      "Ġparks": 6689,
      "Ġowner": 6690,
      "Ġfinds": 6691,
      "Ġcollaboration": 6692,
      "Ġimperial": 6693,
      "Ġgods": 6694,
      "Ġow": 6695,
      "Ġib": 6696,
      "Ġpediatric": 6697,
      "Ġcombat": 6698,
      "oured": 6699,
      "Ġvarieties": 6700,
      "vin": 6701,
      "Ġcash": 6702,
      "Ġhazard": 6703,
      "Ġgained": 6704,
      "Ġvariation": 6705,
      "ude": 6706,
      "41": 6707,
      "Ġevaluate": 6708,
      "Ġtables": 6709,
      "Ġ1995": 6710,
      "Ġga": 6711,
      "Ġtowns": 6712,
      "Ġobserve": 6713,
      "Ġroles": 6714,
      "01": 6715,
      "Ġjerusalem": 6716,
      "Ġhumanity": 6717,
      "Ġdealing": 6718,
      "Ġnavy": 6719,
      "uing": 6720,
      "Ġphosph": 6721,
      "Ġkilling": 6722,
      "Ġconfirmed": 6723,
      "Ġapparently": 6724,
      "Ġconven": 6725,
      "Ġseconds": 6726,
      "Ġrespectively": 6727,
      "Ġphysician": 6728,
      "list": 6729,
      "2017": 6730,
      "Ġprinted": 6731,
      "Ġdefend": 6732,
      "Ġdress": 6733,
      "Ġlincoln": 6734,
      "Ġchallenging": 6735,
      "Ġscotland": 6736,
      "outs": 6737,
      "Ġdisabilities": 6738,
      "Ġcomplicated": 6739,
      "Ġgrain": 6740,
      "Ġvib": 6741,
      "Ġaffairs": 6742,
      "abeth": 6743,
      "Ġbesides": 6744,
      "Ġswed": 6745,
      "Ġastronom": 6746,
      "Ġencyclop": 6747,
      "gov": 6748,
      "Ġinterior": 6749,
      "Ġstead": 6750,
      "icip": 6751,
      "?\"": 6752,
      "Ġdates": 6753,
      "uracy": 6754,
      "!!": 6755,
      "Ġcarbohyd": 6756,
      "Ġkings": 6757,
      "Ġbee": 6758,
      "Ġtab": 6759,
      "Ġhebre": 6760,
      "Ġdrought": 6761,
      "Ġcalling": 6762,
      "Ġingredients": 6763,
      "Ġplanting": 6764,
      "Ġlaser": 6765,
      "Ġbasically": 6766,
      "Ġhappening": 6767,
      "Ġhormone": 6768,
      "Ġpoetry": 6769,
      "Ġcensus": 6770,
      "Ġrow": 6771,
      "Ġmeals": 6772,
      "Ġ1950": 6773,
      "Ġlabour": 6774,
      "Ġconce": 6775,
      "inf": 6776,
      "86": 6777,
      "Ġaccessible": 6778,
      "Ġprinting": 6779,
      "Ġ1996": 6780,
      "Ġbreed": 6781,
      "%.": 6782,
      "Ġintent": 6783,
      "Ġperception": 6784,
      "Ġtelling": 6785,
      "Ġnitrogen": 6786,
      "Ġencoun": 6787,
      "Ġflying": 6788,
      "Ġgate": 6789,
      "ella": 6790,
      "Ġbapt": 6791,
      "imm": 6792,
      "cd": 6793,
      "Ġscul": 6794,
      "Ġaged": 6795,
      "Ġworst": 6796,
      "sl": 6797,
      "Ġrational": 6798,
      "Ġreserve": 6799,
      "Ġenforce": 6800,
      "Ġdecreased": 6801,
      "Ġdifficulties": 6802,
      "Ġrespiratory": 6803,
      "chen": 6804,
      "rous": 6805,
      "Ġvitamins": 6806,
      "Ġmodified": 6807,
      "Ġfats": 6808,
      "Ġmanager": 6809,
      "Ġsurge": 6810,
      "Ã¶": 6811,
      "Ġherb": 6812,
      "Ġalter": 6813,
      "Ġpestic": 6814,
      "Ġtestament": 6815,
      "Ġdose": 6816,
      "Ġfarms": 6817,
      "Ġtrail": 6818,
      "han": 6819,
      "hs": 6820,
      "Ġbacterial": 6821,
      "making": 6822,
      "Ġmeasuring": 6823,
      "Ġvictim": 6824,
      "pdf": 6825,
      "Ġtrends": 6826,
      "Ġparag": 6827,
      "rid": 6828,
      "Ġdisability": 6829,
      "Ġusual": 6830,
      "Ġboat": 6831,
      "Ġaudio": 6832,
      "rison": 6833,
      "Ġmood": 6834,
      "airy": 6835,
      "71": 6836,
      "Ġdiag": 6837,
      "Ġagent": 6838,
      "Ġquantum": 6839,
      "Ġdynam": 6840,
      "Ġrely": 6841,
      "Ġassociate": 6842,
      "Ġlaunch": 6843,
      "Ġeducators": 6844,
      "Ġconsiderable": 6845,
      "Ġmathematical": 6846,
      "Ġpale": 6847,
      "Ġquiet": 6848,
      "dule": 6849,
      "ounce": 6850,
      "Ġheating": 6851,
      "Ġ)": 6852,
      "Ġerrors": 6853,
      "Ġul": 6854,
      "Ġpoem": 6855,
      "Ġadolesc": 6856,
      "Ġeliz": 6857,
      "Ġoldest": 6858,
      "Ġdriven": 6859,
      "Ġlogic": 6860,
      "Ġordered": 6861,
      "Ġfinger": 6862,
      "Ġsodium": 6863,
      "Ġreliable": 6864,
      "Ġsunday": 6865,
      "ano": 6866,
      "Ġthro": 6867,
      "Ġdetection": 6868,
      "Ġeliminate": 6869,
      "Ġtox": 6870,
      "Ġjohnson": 6871,
      "Ġkilomet": 6872,
      "Ġconsume": 6873,
      "Ġmaintained": 6874,
      "world": 6875,
      "Ġlip": 6876,
      "ora": 6877,
      "worth": 6878,
      "Ġstructural": 6879,
      "ading": 6880,
      "Ġgenome": 6881,
      "Ġwithdra": 6882,
      "Ġsculpt": 6883,
      "Ġelementary": 6884,
      "Ġritual": 6885,
      "Ġsons": 6886,
      "Ġcompound": 6887,
      "Ġkorea": 6888,
      "Ġteams": 6889,
      "Ġabsence": 6890,
      "Ġviewed": 6891,
      "charge": 6892,
      "Ġreplic": 6893,
      "itals": 6894,
      "olit": 6895,
      "Ġtaxes": 6896,
      "Ġuniform": 6897,
      "Ġholes": 6898,
      "Ġmovie": 6899,
      "Ġwrites": 6900,
      "Ġheavily": 6901,
      "Ġwonderful": 6902,
      "Ġexped": 6903,
      "aska": 6904,
      "illa": 6905,
      "Ġfaced": 6906,
      "Ġexception": 6907,
      "73": 6908,
      "Ġsatisf": 6909,
      "Ġaside": 6910,
      "Ġprince": 6911,
      "Ġaccuracy": 6912,
      "fts": 6913,
      "Ġattitude": 6914,
      "Ġfilter": 6915,
      "Ġdynamic": 6916,
      "Ġmicrob": 6917,
      "Ġdil": 6918,
      "Ġcustomers": 6919,
      "Ġtrigger": 6920,
      "Ġhaven": 6921,
      "Ġanywhere": 6922,
      "Ġsettlement": 6923,
      "otype": 6924,
      "Ġclay": 6925,
      "Ġsurfaces": 6926,
      "Ġduty": 6927,
      "theless": 6928,
      "Ġcleaning": 6929,
      "fast": 6930,
      "oric": 6931,
      "Ġaggress": 6932,
      "including": 6933,
      "Ġearliest": 6934,
      "Ġscores": 6935,
      "Ġexamined": 6936,
      "ĠÂ£": 6937,
      "non": 6938,
      "Ġcolonies": 6939,
      "Ġbang": 6940,
      "Ġmarsh": 6941,
      "Ġmoderate": 6942,
      "Ġlock": 6943,
      "Ġdiameter": 6944,
      "Ġliv": 6945,
      "Ġschedule": 6946,
      "Ġinfants": 6947,
      "Ġregulation": 6948,
      "Ġemphasis": 6949,
      "otes": 6950,
      "Ġbehavioral": 6951,
      "books": 6952,
      "Ġmanual": 6953,
      "rane": 6954,
      "Ġadds": 6955,
      "Ġalive": 6956,
      "Ġari": 6957,
      "Ġpalest": 6958,
      "Ġdriver": 6959,
      "Ġpakistan": 6960,
      "Ġcolony": 6961,
      "Ġsacred": 6962,
      "Ġcompens": 6963,
      "Ġstan": 6964,
      "Ġpersonality": 6965,
      "Ġpear": 6966,
      "Ġnov": 6967,
      "Ġachievement": 6968,
      "Ġsoph": 6969,
      "Ġliterary": 6970,
      "Ġtribes": 6971,
      "rey": 6972,
      "ette": 6973,
      "Ġshoot": 6974,
      "Ġ1994": 6975,
      "sts": 6976,
      "ivers": 6977,
      "Ġtower": 6978,
      "Ġrecover": 6979,
      "Ġflash": 6980,
      "Ġguess": 6981,
      "Ġinhabit": 6982,
      "Ġabdom": 6983,
      "idity": 6984,
      "Ġdemands": 6985,
      "Ġwing": 6986,
      "Ġtargets": 6987,
      "sell": 6988,
      "Ġwash": 6989,
      "Ġnarrative": 6990,
      "Ġevening": 6991,
      "Ġlibr": 6992,
      "Ġreveal": 6993,
      "nas": 6994,
      "Ġsubstantial": 6995,
      "inating": 6996,
      "Ġnevertheless": 6997,
      "Ġ33": 6998,
      "Ġepis": 6999,
      "Ġchurches": 7000,
      "Ġattach": 7001,
      "Ġcomfortable": 7002,
      "Ġrhyth": 7003,
      "Ġmol": 7004,
      "Ġwatching": 7005,
      "Ġgrades": 7006,
      "Ġexploration": 7007,
      "learn": 7008,
      "igare": 7009,
      "Ġgrace": 7010,
      "Ġts": 7011,
      "Ġpope": 7012,
      "Ġjur": 7013,
      "Ġstatements": 7014,
      "Ġcounsel": 7015,
      "Ġorders": 7016,
      "Ġaccompan": 7017,
      "ruption": 7018,
      "Ġglac": 7019,
      "ecess": 7020,
      "Ġlos": 7021,
      "Ġrac": 7022,
      "Ġgardens": 7023,
      "def": 7024,
      "athered": 7025,
      "onomic": 7026,
      "iana": 7027,
      "aded": 7028,
      "icted": 7029,
      "Ġdirections": 7030,
      "lu": 7031,
      "Ġupdated": 7032,
      "Ġstrange": 7033,
      "parent": 7034,
      "rh": 7035,
      "Ġmixture": 7036,
      "Ġfatty": 7037,
      "abil": 7038,
      "Ġcooling": 7039,
      "Ġsor": 7040,
      "Ġ48": 7041,
      "Ġisolated": 7042,
      "Ġpad": 7043,
      "Ġdesired": 7044,
      "oir": 7045,
      "Ġinformed": 7046,
      "Ġprayer": 7047,
      "Ġrect": 7048,
      "Ġresc": 7049,
      "Ġprotecting": 7050,
      "Ġordinary": 7051,
      "Ġdutch": 7052,
      "Ġassigned": 7053,
      "Ġfocuses": 7054,
      "iovascular": 7055,
      "Ġrobot": 7056,
      "Ġenorm": 7057,
      "74": 7058,
      "Ġstores": 7059,
      "Ġmoses": 7060,
      "angle": 7061,
      "Ġargue": 7062,
      "ogical": 7063,
      "po": 7064,
      "Ð°": 7065,
      "eness": 7066,
      "Ġcure": 7067,
      "dd": 7068,
      "Ġtobac": 7069,
      "Ġrecre": 7070,
      "Ġaz": 7071,
      "Ġstones": 7072,
      "uther": 7073,
      "Ġconcluded": 7074,
      "Ġevolved": 7075,
      "Ġreconst": 7076,
      "Ġeconomics": 7077,
      "lims": 7078,
      "Ġsum": 7079,
      "ployment": 7080,
      "Ġholiday": 7081,
      "Ġeffectiveness": 7082,
      "Ð¾": 7083,
      "who": 7084,
      "Ġtobacco": 7085,
      "Ġfriday": 7086,
      "Ġka": 7087,
      "Ġconsideration": 7088,
      "ricts": 7089,
      "Ġvictory": 7090,
      "Ġdimens": 7091,
      "Ġwouldn": 7092,
      "ostic": 7093,
      "Ġwaiting": 7094,
      "ani": 7095,
      "Ġbelieves": 7096,
      "Ġsalmon": 7097,
      "Ġburied": 7098,
      "law": 7099,
      "Ġcontribution": 7100,
      "Ġedward": 7101,
      "xid": 7102,
      "Ġdol": 7103,
      "Ġcharacterized": 7104,
      "ima": 7105,
      "ourage": 7106,
      "Ġwise": 7107,
      "Ġot": 7108,
      "Ġtill": 7109,
      "Ġcraft": 7110,
      "Ġchristianity": 7111,
      "just": 7112,
      "Ġmyself": 7113,
      "iological": 7114,
      "Ġflows": 7115,
      "fir": 7116,
      "Ġcreatures": 7117,
      "real": 7118,
      "Ġalz": 7119,
      "Ġdairy": 7120,
      "oli": 7121,
      "Ġfifth": 7122,
      "Ġminds": 7123,
      "Ġaims": 7124,
      "Ġclient": 7125,
      "Ġcomplications": 7126,
      "Ġpreserve": 7127,
      "Ġjuice": 7128,
      "Ġpill": 7129,
      "Ġsalv": 7130,
      "Ġphrase": 7131,
      "Ġdetected": 7132,
      "coming": 7133,
      "Ġty": 7134,
      "Ġentertain": 7135,
      "Ġexhibit": 7136,
      "Ġextend": 7137,
      "Ġcardiovascular": 7138,
      "hea": 7139,
      "etts": 7140,
      "Ġpubl": 7141,
      "Ġstreets": 7142,
      "cin": 7143,
      "Ġdirected": 7144,
      "Ġidentifying": 7145,
      "Ġimaging": 7146,
      "soft": 7147,
      "haust": 7148,
      "asty": 7149,
      "sylv": 7150,
      "Ġgravity": 7151,
      "Ġuncom": 7152,
      "Ġserves": 7153,
      "Ġmanifest": 7154,
      "Ġgif": 7155,
      "effect": 7156,
      "Ġarctic": 7157,
      "Ġstopped": 7158,
      "Ġadvantages": 7159,
      "Ġequality": 7160,
      "Ġelizabeth": 7161,
      "rator": 7162,
      "Ġreaching": 7163,
      "Ġlam": 7164,
      "Ġbrows": 7165,
      "raham": 7166,
      "Ġappointed": 7167,
      "Ġmonday": 7168,
      "Ġ38": 7169,
      "ieval": 7170,
      "Ġconj": 7171,
      "Ġhawa": 7172,
      "Ġforming": 7173,
      "Ġcovering": 7174,
      "Ġresearcher": 7175,
      "achus": 7176,
      "Ġgly": 7177,
      "Ġgrains": 7178,
      "miss": 7179,
      "Ġluc": 7180,
      "Ġarmed": 7181,
      "Ġcommitment": 7182,
      "Ġohio": 7183,
      "Ġequation": 7184,
      "heric": 7185,
      "Ġclock": 7186,
      "Ġrepresentation": 7187,
      "Ġimplemented": 7188,
      "ker": 7189,
      "Ġabilities": 7190,
      "Ġgeomet": 7191,
      "Ġstyles": 7192,
      "Ġopposition": 7193,
      "Ġhell": 7194,
      "Ġsymbols": 7195,
      "Ġvisited": 7196,
      "Ġfalling": 7197,
      "ints": 7198,
      "Ġpropag": 7199,
      "after": 7200,
      "Ġthreats": 7201,
      "Ġmcc": 7202,
      "Ġlymph": 7203,
      "Ġentr": 7204,
      "Ġprofit": 7205,
      "Ġrelie": 7206,
      "Ġreporting": 7207,
      "Ġsout": 7208,
      "Ðµ": 7209,
      "Ġdisrupt": 7210,
      "Ġpromise": 7211,
      "Ġobviously": 7212,
      "Ġsched": 7213,
      "fa": 7214,
      "pling": 7215,
      "Ġtwel": 7216,
      "Ġcul": 7217,
      "Ġcanal": 7218,
      "Ġ55": 7219,
      "ommod": 7220,
      "Ġthreatened": 7221,
      "Ġincident": 7222,
      "Ġovercome": 7223,
      "Ġcomputing": 7224,
      "Ġtap": 7225,
      "Ġsentences": 7226,
      "iat": 7227,
      "Ġlens": 7228,
      "Ġecological": 7229,
      "72": 7230,
      "Ġplas": 7231,
      "Ġlob": 7232,
      "Ġoste": 7233,
      "Ġaccommod": 7234,
      "Ġfing": 7235,
      "child": 7236,
      "Ġmanufacturers": 7237,
      "Ġobama": 7238,
      "Ġbrothers": 7239,
      "Ġwhenever": 7240,
      "Ġalzheimer": 7241,
      "'d": 7242,
      "Ġelsewhere": 7243,
      "Ġliberty": 7244,
      "Ġreign": 7245,
      "Ġpreced": 7246,
      "Ġchocol": 7247,
      "Ġcompost": 7248,
      "Ġoccurring": 7249,
      "hentic": 7250,
      "Ġdecay": 7251,
      "Ġsocieties": 7252,
      "Ġshore": 7253,
      "Ġion": 7254,
      "Ġbush": 7255,
      "Ġfought": 7256,
      "orig": 7257,
      "Ġstations": 7258,
      "Ġhay": 7259,
      "Ġpassion": 7260,
      "iary": 7261,
      "Ġacquired": 7262,
      "Ġhappiness": 7263,
      "Ġrecall": 7264,
      "Ġprocessed": 7265,
      "Ġoak": 7266,
      "Ġarist": 7267,
      "Ġswit": 7268,
      "Ġcorrectly": 7269,
      "Ġspray": 7270,
      "Ġsupplements": 7271,
      "Ġorigins": 7272,
      "Ġmete": 7273,
      "Ġprophet": 7274,
      "Ġantioxid": 7275,
      "ja": 7276,
      "Ġacting": 7277,
      "Ġalexander": 7278,
      "Ġhorn": 7279,
      "Ġhybr": 7280,
      "aneously": 7281,
      "Ġoverw": 7282,
      "hus": 7283,
      "Ġweakness": 7284,
      "umber": 7285,
      "Ġfatig": 7286,
      "Ġadverse": 7287,
      "Ġcontributed": 7288,
      "68": 7289,
      "http": 7290,
      "Ġurine": 7291,
      "Ġaddressed": 7292,
      "Ġallah": 7293,
      "Ġmedicines": 7294,
      "Ġcolumbia": 7295,
      "Ġbutton": 7296,
      "Ġdramatic": 7297,
      "onym": 7298,
      "osh": 7299,
      "Ġintroduce": 7300,
      "Ġdies": 7301,
      "Ġspat": 7302,
      "Ġparagraph": 7303,
      "Ġcyber": 7304,
      "lical": 7305,
      "asant": 7306,
      "Ġsunlight": 7307,
      "Ġsab": 7308,
      "enger": 7309,
      "Ġacres": 7310,
      "Ġwelfare": 7311,
      "Ġarray": 7312,
      "sylvania": 7313,
      "Ġdescript": 7314,
      "Ġrepeat": 7315,
      "angered": 7316,
      "Ġpursu": 7317,
      "Ġny": 7318,
      "wan": 7319,
      "Ġuniversities": 7320,
      "Ġgraduate": 7321,
      "Ġmedieval": 7322,
      "archy": 7323,
      "yer": 7324,
      "mann": 7325,
      "Ġautomatically": 7326,
      "Ġseparated": 7327,
      "Ġexpanded": 7328,
      "Ġft": 7329,
      "Ġfunctioning": 7330,
      "Ġunderground": 7331,
      "Ġsimult": 7332,
      "uits": 7333,
      "foot": 7334,
      "Ġcharacteristic": 7335,
      "Ġarguments": 7336,
      "occ": 7337,
      "Ġsaved": 7338,
      "Ġprospect": 7339,
      "Ġkeeps": 7340,
      "Ġexhaust": 7341,
      "ori": 7342,
      "Ġaging": 7343,
      "Ġintensity": 7344,
      "Ġthread": 7345,
      "pm": 7346,
      "iture": 7347,
      "green": 7348,
      "Ġinequ": 7349,
      "Ġnewspaper": 7350,
      "Ġveloc": 7351,
      "âĢĺ": 7352,
      "Ġtechnological": 7353,
      "Ġvegetable": 7354,
      "berry": 7355,
      "Ġreverse": 7356,
      "Ġobjectives": 7357,
      "Ġregister": 7358,
      "Ġcourts": 7359,
      "Ġregarded": 7360,
      "Ġchromos": 7361,
      "Ã¢": 7362,
      "Ġsaving": 7363,
      "Ġpermission": 7364,
      "Ġcolorado": 7365,
      "Ġoverview": 7366,
      "agan": 7367,
      "fri": 7368,
      "Ġsib": 7369,
      "Ġcarn": 7370,
      "Ġmuslims": 7371,
      "Ġmigration": 7372,
      "Ġprevalence": 7373,
      "Ġthermal": 7374,
      "Ġsmell": 7375,
      "Ġcancers": 7376,
      "Ġfaces": 7377,
      "Ġturkey": 7378,
      "Ġlegend": 7379,
      "Ġemerging": 7380,
      "Ġhypothesis": 7381,
      "Ġstrain": 7382,
      "Ġthereby": 7383,
      "Ġillegal": 7384,
      "cience": 7385,
      "Ġdun": 7386,
      "Ġembra": 7387,
      "Ġspoken": 7388,
      "Ġwebsites": 7389,
      "Ġemotion": 7390,
      "Ġanthrop": 7391,
      "Ġmarketing": 7392,
      "Ġunw": 7393,
      "Ġcontents": 7394,
      "Ġraising": 7395,
      "Ġvertical": 7396,
      "Ġchose": 7397,
      "Ġverb": 7398,
      "wal": 7399,
      "icing": 7400,
      "Ġbiod": 7401,
      "Ġneutral": 7402,
      "Ġversions": 7403,
      "Ġsongs": 7404,
      "Ġattitudes": 7405,
      "Ġcontinuing": 7406,
      "Ġvice": 7407,
      "Ġresid": 7408,
      "Ġbuck": 7409,
      "Ġabraham": 7410,
      "Ġcouldn": 7411,
      "Ġstability": 7412,
      "Ġbeans": 7413,
      "Ġlecture": 7414,
      "anth": 7415,
      "Ġmanaging": 7416,
      "lings": 7417,
      "Ġ1992": 7418,
      "Ġlowest": 7419,
      "Ġprotective": 7420,
      "Ġempty": 7421,
      "Ġmouse": 7422,
      "Ġinterface": 7423,
      "Ġdeclar": 7424,
      "Ġmichigan": 7425,
      "Ġchances": 7426,
      "Ġtens": 7427,
      "icy": 7428,
      "Ġfet": 7429,
      "Ġpointed": 7430,
      "Ġconfident": 7431,
      "pres": 7432,
      "ifice": 7433,
      "Ġ34": 7434,
      "Ġcalend": 7435,
      "Ġquantity": 7436,
      "Ġargued": 7437,
      "69": 7438,
      "Ġhardware": 7439,
      "Ġoverwhel": 7440,
      "Ġeru": 7441,
      "Ġlicense": 7442,
      "Ġintr": 7443,
      "Ġont": 7444,
      "eu": 7445,
      "ansas": 7446,
      "Ġcoverage": 7447,
      "Ġdefinitely": 7448,
      "Ġsheep": 7449,
      "Ġanne": 7450,
      "iop": 7451,
      "Ġdeficiency": 7452,
      "Ġirrig": 7453,
      "zo": 7454,
      "Ġcastle": 7455,
      "Ġendangered": 7456,
      "Ġdrivers": 7457,
      "Ġpione": 7458,
      "Ġmira": 7459,
      "Ġcelebrated": 7460,
      "Ġliterally": 7461,
      "Ġmercury": 7462,
      "Ġira": 7463,
      "owing": 7464,
      "Ġpennsylvania": 7465,
      "str": 7466,
      "Ġfortun": 7467,
      "Ġdominant": 7468,
      "ographical": 7469,
      "Ġinnovative": 7470,
      "rays": 7471,
      "Ġeleph": 7472,
      "Ġexciting": 7473,
      "Ġclothes": 7474,
      "Ġ39": 7475,
      "Ġfocusing": 7476,
      "Ġgases": 7477,
      "Ġlinear": 7478,
      "achusetts": 7479,
      "Ġentit": 7480,
      "vol": 7481,
      "Ġneurol": 7482,
      "Ġanat": 7483,
      "Ġislamic": 7484,
      "Ġsuscept": 7485,
      "Ġlists": 7486,
      "Ġcomprom": 7487,
      "Ġgray": 7488,
      "Ġlosing": 7489,
      "rus": 7490,
      "Ġauthentic": 7491,
      "Ġ95": 7492,
      "Ġposts": 7493,
      "itarian": 7494,
      "Ġphysically": 7495,
      "Ġclassic": 7496,
      "Ġtrick": 7497,
      "Ġphotographs": 7498,
      "Ġgeorgia": 7499,
      "Ġrestoration": 7500,
      "Ġcamer": 7501,
      "Ġglobe": 7502,
      "!âĢĿ": 7503,
      "ref": 7504,
      "ingly": 7505,
      "Ġmrs": 7506,
      "Ġ1991": 7507,
      "Ġgulf": 7508,
      "Ġprey": 7509,
      "ika": 7510,
      "Ġphilosoph": 7511,
      "Ġwikipedia": 7512,
      "Ġphilipp": 7513,
      "hamm": 7514,
      "Ġmetaph": 7515,
      "Ġharvard": 7516,
      "Ġ1993": 7517,
      "Ġcommons": 7518,
      "Ġconfirm": 7519,
      "ilation": 7520,
      "iva": 7521,
      "Ġcatal": 7522,
      "Ġuncle": 7523,
      "Ġhomework": 7524,
      "Ġattribut": 7525,
      "ribe": 7526,
      "Ġperforming": 7527,
      "Ġestablishment": 7528,
      "64": 7529,
      "Ġcambridge": 7530,
      "Ġtomat": 7531,
      "Ġavailability": 7532,
      "Ġvirtually": 7533,
      "Ġoly": 7534,
      "Ġtrem": 7535,
      "Ġbreaking": 7536,
      "Ġbare": 7537,
      "century": 7538,
      "Ġconcentrations": 7539,
      "Ġbh": 7540,
      "aneous": 7541,
      "Ġassistant": 7542,
      "'.": 7543,
      "Ġ1930": 7544,
      "Ġcharged": 7545,
      "Ġpurs": 7546,
      "Ġdeeply": 7547,
      "Ġdistricts": 7548,
      "Ġharder": 7549,
      "Ġtick": 7550,
      "Ġdelic": 7551,
      "Ġthirty": 7552,
      "Ġcrew": 7553,
      "Ġsensitivity": 7554,
      "Ġmetals": 7555,
      "Ġremarkable": 7556,
      "Ġsuddenly": 7557,
      "Ġenterpr": 7558,
      "Ġsect": 7559,
      "ipher": 7560,
      "Ġ37": 7561,
      "Ġvariations": 7562,
      "à¥": 7563,
      "ysis": 7564,
      "Ġchocolate": 7565,
      "Ġfuels": 7566,
      "Ġduration": 7567,
      "],": 7568,
      "Ġconsumed": 7569,
      "Ġrepresentatives": 7570,
      "Ġcooperation": 7571,
      "Ġtang": 7572,
      "Ġviolent": 7573,
      "Ġwelcome": 7574,
      "Ġmassachusetts": 7575,
      "press": 7576,
      "Ġaimed": 7577,
      "Ġolymp": 7578,
      "Ġiran": 7579,
      "hd": 7580,
      "Ġvegetation": 7581,
      "Ġcreek": 7582,
      "inois": 7583,
      "Ġtempor": 7584,
      "Ġsizes": 7585,
      "medi": 7586,
      "Ġzo": 7587,
      "Ġaccord": 7588,
      "Ġengaging": 7589,
      "Ġsensor": 7590,
      "Ġfolk": 7591,
      "Ġchoosing": 7592,
      "Ġperceived": 7593,
      "Ġcave": 7594,
      "Ġprovider": 7595,
      "Ġmail": 7596,
      "Ġspoke": 7597,
      "Ġtrace": 7598,
      "Ġwearing": 7599,
      "Ġcivilization": 7600,
      "Ġster": 7601,
      "thal": 7602,
      "cp": 7603,
      "ami": 7604,
      "Ġcelebrate": 7605,
      "Ġshakes": 7606,
      "Ġsister": 7607,
      "Ġbiodiversity": 7608,
      "Ġtransc": 7609,
      "Ġteens": 7610,
      "Ġstatistical": 7611,
      "orted": 7612,
      "Ġshed": 7613,
      "Ġampl": 7614,
      "ti": 7615,
      "Ġauto": 7616,
      "Ġseriously": 7617,
      "Ġanger": 7618,
      "Ġprofile": 7619,
      "Ġfault": 7620,
      "fol": 7621,
      "Ġevident": 7622,
      "Ġremem": 7623,
      "otherapy": 7624,
      "Ġgift": 7625,
      "adel": 7626,
      "Ġsensors": 7627,
      "ourse": 7628,
      "iger": 7629,
      "ochem": 7630,
      "Ġpeer": 7631,
      "Ġchamber": 7632,
      "Ġstood": 7633,
      "Ġversus": 7634,
      "Ġcontainer": 7635,
      "Ġcalculated": 7636,
      "zym": 7637,
      "Ġassumed": 7638,
      "Ġnutrient": 7639,
      "Ġlungs": 7640,
      "Ġintegration": 7641,
      "Ġgreece": 7642,
      "Ġpine": 7643,
      "Ġinterventions": 7644,
      "Ġdipl": 7645,
      "Ġearthquake": 7646,
      "Ġhebrew": 7647,
      "essions": 7648,
      "Ġprocl": 7649,
      "Ġspinal": 7650,
      "Ġlady": 7651,
      "pubmed": 7652,
      "Ġdisappear": 7653,
      "Ġfaculty": 7654,
      "Ġvolunteers": 7655,
      "pled": 7656,
      "box": 7657,
      "pal": 7658,
      "Ġrecon": 7659,
      "cel": 7660,
      "Ġfestival": 7661,
      "ttps": 7662,
      "Ġexpectations": 7663,
      "una": 7664,
      "rot": 7665,
      "Ġpassword": 7666,
      "Ġimprovements": 7667,
      "Ġthyroid": 7668,
      "67": 7669,
      "ricted": 7670,
      "dis": 7671,
      "mond": 7672,
      "uten": 7673,
      "Ġencyclopedia": 7674,
      "Ġfatigue": 7675,
      "cm": 7676,
      "Ġalb": 7677,
      "Ġoxid": 7678,
      "Ġdub": 7679,
      "Ġjudgment": 7680,
      "estock": 7681,
      "Ġdigestive": 7682,
      "Ġenormous": 7683,
      "Ġaffecting": 7684,
      "Ġpilot": 7685,
      "Ġease": 7686,
      "olving": 7687,
      "Ġengines": 7688,
      "Ġwinds": 7689,
      "Ġultimate": 7690,
      "aints": 7691,
      "Ġapplying": 7692,
      "Ġoccasionally": 7693,
      "Ġ;": 7694,
      "Ġcreativity": 7695,
      "orate": 7696,
      "Ġstrategic": 7697,
      "Ġsulf": 7698,
      "Ġreasonable": 7699,
      "Ġhouseholds": 7700,
      "Ġwings": 7701,
      "eland": 7702,
      "Ġstrike": 7703,
      "Ġrestaur": 7704,
      "Ġhills": 7705,
      "acts": 7706,
      "Ġentering": 7707,
      "Ġlifetime": 7708,
      "hr": 7709,
      "Ġbil": 7710,
      "Ġcheap": 7711,
      "eut": 7712,
      "Ġdict": 7713,
      "spe": 7714,
      "Ġremoving": 7715,
      "Ġdement": 7716,
      "Ġnoticed": 7717,
      "Ġbullying": 7718,
      "Ġnutritional": 7719,
      "Ġtheat": 7720,
      "Ġliberal": 7721,
      "Ġdiarr": 7722,
      "Ġprize": 7723,
      "07": 7724,
      "Ġowned": 7725,
      "Ġtemporary": 7726,
      "Ġarthritis": 7727,
      "Ġans": 7728,
      "ogenic": 7729,
      "Ġproductivity": 7730,
      "Ġ?": 7731,
      "Ġmalaria": 7732,
      "Ġsettled": 7733,
      "Ġnotion": 7734,
      "ptic": 7735,
      "Ġstere": 7736,
      "ople": 7737,
      "Ġil": 7738,
      "Ġalbert": 7739,
      "Ġpla": 7740,
      "Ġnoun": 7741,
      "Ġsenate": 7742,
      "Ġlighting": 7743,
      "Ġgrounds": 7744,
      "Ġgrammar": 7745,
      "Ġgospel": 7746,
      "Ġdifferently": 7747,
      "',": 7748,
      "Ġgeographic": 7749,
      "Ġpainful": 7750,
      "ctu": 7751,
      "Ġrepresentative": 7752,
      "Ġsoy": 7753,
      "Ġatoms": 7754,
      "Ġfatal": 7755,
      "Ġcough": 7756,
      "ema": 7757,
      "Ġshaped": 7758,
      "Ġbears": 7759,
      "Ġtension": 7760,
      "dp": 7761,
      "Ġloose": 7762,
      "Ġmemorial": 7763,
      "cule": 7764,
      "Ġsolving": 7765,
      "Ġtumor": 7766,
      "Ġpace": 7767,
      "Ġrib": 7768,
      "awa": 7769,
      "09": 7770,
      "requ": 7771,
      "Ġmemor": 7772,
      "Ġmonument": 7773,
      "Ġeverywhere": 7774,
      "Ġillinois": 7775,
      "Ġembry": 7776,
      "Ġstake": 7777,
      "xual": 7778,
      "Ġtech": 7779,
      "roud": 7780,
      "ffe": 7781,
      "Ġblank": 7782,
      "Ġboundaries": 7783,
      "Ġsubsc": 7784,
      "Ġbac": 7785,
      "Ġamendment": 7786,
      "Ġevolutionary": 7787,
      "Ġgathered": 7788,
      "Ġdetermining": 7789,
      "Ġoccas": 7790,
      "Ġtraits": 7791,
      "Ġexploring": 7792,
      "ilst": 7793,
      "Ġadam": 7794,
      "Ġpowder": 7795,
      "vereign": 7796,
      "Ġpromoting": 7797,
      "ptions": 7798,
      "night": 7799,
      "Ġweigh": 7800,
      "Ġclassified": 7801,
      "dep": 7802,
      "Ġunem": 7803,
      "Ġhormones": 7804,
      "Ġdaniel": 7805,
      "mn": 7806,
      "Ġsees": 7807,
      "Ġjacob": 7808,
      "fr": 7809,
      "Ġfred": 7810,
      "Ġsustainability": 7811,
      "Ġdropped": 7812,
      "Ġpuzz": 7813,
      "advant": 7814,
      "Ġprobability": 7815,
      "Ġpriority": 7816,
      "Ġvaccines": 7817,
      "Ġlith": 7818,
      "Ġrealized": 7819,
      "Ġfriendly": 7820,
      "asts": 7821,
      "Ġindones": 7822,
      "Ġethical": 7823,
      "Ġproviders": 7824,
      "Ġpanels": 7825,
      "neys": 7826,
      "Ġessays": 7827,
      "Ġcompass": 7828,
      "Ġphysicians": 7829,
      "adic": 7830,
      "Ġprosper": 7831,
      "Ġrecycling": 7832,
      "Ġaddiction": 7833,
      "Ġcitizen": 7834,
      "Ġdegrad": 7835,
      "Ġminority": 7836,
      "Ġfrancisco": 7837,
      "itory": 7838,
      "Ġmammals": 7839,
      "Ġlosses": 7840,
      "Ġdiscipline": 7841,
      "Ġgum": 7842,
      "elect": 7843,
      "Ġeb": 7844,
      "aka": 7845,
      "Ġmetabolism": 7846,
      "Ġexperiencing": 7847,
      "ensed": 7848,
      "Ġvig": 7849,
      "Ġpersu": 7850,
      "Ġgi": 7851,
      "Ġhu": 7852,
      "Ġsurgical": 7853,
      "Ġperm": 7854,
      "Ġpreferred": 7855,
      "Ġmembrane": 7856,
      "power": 7857,
      "Ġbrains": 7858,
      "Ġoz": 7859,
      "Ġaccessed": 7860,
      "Ġjoints": 7861,
      "Ġtrauma": 7862,
      "Ġwider": 7863,
      "Ġscope": 7864,
      "Ġmeanwhile": 7865,
      "Ġadvances": 7866,
      "Ġtack": 7867,
      "Ġdense": 7868,
      "Ġtort": 7869,
      "Ġauton": 7870,
      "Ġtwitter": 7871,
      "conn": 7872,
      "Ġscheme": 7873,
      "Ġassets": 7874,
      "Ġconverted": 7875,
      "function": 7876,
      "burn": 7877,
      "gregation": 7878,
      "Ġsale": 7879,
      "Ġflexible": 7880,
      "icious": 7881,
      "Ġaccompanied": 7882,
      "Ġassert": 7883,
      "Ġpatent": 7884,
      "bered": 7885,
      "some": 7886,
      "ushing": 7887,
      "peare": 7888,
      "Ġome": 7889,
      "reated": 7890,
      "Ġintention": 7891,
      "Ġdevast": 7892,
      "Ġdevelopmental": 7893,
      "Ġdescend": 7894,
      "%,": 7895,
      "Ġtransmitted": 7896,
      "ena": 7897,
      "Ġhospitals": 7898,
      "Ġtongue": 7899,
      "ranean": 7900,
      "Ġprivile": 7901,
      "Ġbeneath": 7902,
      "Ġinvasion": 7903,
      "Ġmyster": 7904,
      "Ġinch": 7905,
      "----": 7906,
      "Ġnick": 7907,
      "Ġleak": 7908,
      "illion": 7909,
      "Ġzones": 7910,
      "een": 7911,
      "Ġrepresenting": 7912,
      "Ġlingu": 7913,
      "olar": 7914,
      "Ġbegun": 7915,
      "Ġsurprise": 7916,
      "Ġbark": 7917,
      "Ġnom": 7918,
      "Ġfeels": 7919,
      "Ġfant": 7920,
      "Ġtone": 7921,
      "ologically": 7922,
      "Ġadapted": 7923,
      "Ġtact": 7924,
      "Ġpaintings": 7925,
      "cat": 7926,
      "made": 7927,
      "Ġexisted": 7928,
      "Ġbleeding": 7929,
      "Ġplanted": 7930,
      "Ġscenario": 7931,
      "Ġtam": 7932,
      "Ġfiction": 7933,
      "Ġnuts": 7934,
      "Ġsovereign": 7935,
      "Ġtib": 7936,
      "ila": 7937,
      "Ġsuicide": 7938,
      "bir": 7939,
      "Ġassignment": 7940,
      "ols": 7941,
      "Ġgest": 7942,
      "aa": 7943,
      "Ġclinic": 7944,
      "issipp": 7945,
      "artic": 7946,
      "Ġmaxim": 7947,
      "Ġtransact": 7948,
      "erts": 7949,
      "even": 7950,
      "Ġ~": 7951,
      "Ġscat": 7952,
      "Ġacknowled": 7953,
      "87": 7954,
      "Ġenjoyed": 7955,
      "Ġspecialist": 7956,
      "Ġinvestigate": 7957,
      "Ġdrinks": 7958,
      "59": 7959,
      "Ġenzym": 7960,
      "Ġdementia": 7961,
      "through": 7962,
      "Ġbureau": 7963,
      "rin": 7964,
      "Ġprin": 7965,
      "ocation": 7966,
      "Ġanalyze": 7967,
      "Ġcalculate": 7968,
      "Ġyoga": 7969,
      "cut": 7970,
      "Ġimmigrants": 7971,
      "Ġfrust": 7972,
      "Ġpaying": 7973,
      "Ġcirculation": 7974,
      "Ġincidence": 7975,
      "hire": 7976,
      "owed": 7977,
      "Ġlivestock": 7978,
      "Ġhub": 7979,
      "Ġrefused": 7980,
      "Ġprox": 7981,
      "Ġbatteries": 7982,
      "Ġhonest": 7983,
      "Ġbalanced": 7984,
      "Ġjr": 7985,
      "Ġcompos": 7986,
      "Ġrestore": 7987,
      "icts": 7988,
      "Ġears": 7989,
      "Ġisa": 7990,
      "Ġpairs": 7991,
      "Ġcoat": 7992,
      "Ġvelocity": 7993,
      "Ġpreparing": 7994,
      "Ġmeteor": 7995,
      "Ġranging": 7996,
      "Ġexplicit": 7997,
      "Ġopinions": 7998,
      "Ġcontrolling": 7999,
      "Ġpatri": 8000,
      "Ġoptical": 8001,
      "Ġcontributions": 8002,
      "Ġpink": 8003,
      "Ġconvert": 8004,
      "onal": 8005,
      "Ġdiscussions": 8006,
      "Ġtransmit": 8007,
      "Ġlogical": 8008,
      "Ġinvolvement": 8009,
      "Ġreviews": 8010,
      "Ġvietnam": 8011,
      "Ġmud": 8012,
      "Ġresistant": 8013,
      "borne": 8014,
      "Ġatmospheric": 8015,
      "Ġcorporate": 8016,
      "lock": 8017,
      "Ġwednes": 8018,
      "Ġnap": 8019,
      "Ġpurchased": 8020,
      "Ġiraq": 8021,
      "Ġconstitutional": 8022,
      "Ġgear": 8023,
      "Ġshorter": 8024,
      "Ġanticip": 8025,
      "Ġrevolutionary": 8026,
      "Ġcher": 8027,
      "Ġtransplant": 8028,
      "Ġwhilst": 8029,
      "Ġdraft": 8030,
      "Ġdeclaration": 8031,
      "Ġspots": 8032,
      "Ġhier": 8033,
      "Ġbarrier": 8034,
      "Ġ1920": 8035,
      "Ġcosm": 8036,
      "Ġdisadvant": 8037,
      "Ġapost": 8038,
      "Ġcontinent": 8039,
      "Ġchicken": 8040,
      "may": 8041,
      "Ġsafely": 8042,
      "Ġdimensions": 8043,
      "Ġleague": 8044,
      "Ġceleb": 8045,
      "Ġcorporation": 8046,
      "Ġfires": 8047,
      "Ġgran": 8048,
      "was": 8049,
      "Ġtorn": 8050,
      "utation": 8051,
      "Ġborrow": 8052,
      "Ġhurric": 8053,
      "Ġreserved": 8054,
      "03": 8055,
      "Ġsavings": 8056,
      "imp": 8057,
      "Ġreaches": 8058,
      "Ġthroat": 8059,
      "Ġoccupied": 8060,
      "Ġworkshop": 8061,
      "Ġabsolutely": 8062,
      "Ġsug": 8063,
      "Ġparticle": 8064,
      "Ġbun": 8065,
      "Ġcandidate": 8066,
      "Ġtwelve": 8067,
      "ci": 8068,
      "Ġdisk": 8069,
      "Ġ1940": 8070,
      "Ġvillages": 8071,
      "Ġunlikely": 8072,
      "issippi": 8073,
      "forest": 8074,
      "Ġ42": 8075,
      "Ġparameters": 8076,
      "western": 8077,
      "irus": 8078,
      "Ġalert": 8079,
      "Ġpalace": 8080,
      "Ġprecip": 8081,
      "Ġamongst": 8082,
      "Ġreveals": 8083,
      "Ġtotally": 8084,
      "Ġfinish": 8085,
      "Ġshakespeare": 8086,
      ".).": 8087,
      "rolled": 8088,
      "Ġecosystems": 8089,
      "gged": 8090,
      "Ġdefinitions": 8091,
      "anted": 8092,
      "Ġengagement": 8093,
      "Ġfda": 8094,
      "Ġembed": 8095,
      "Ġinfluences": 8096,
      "Ġpractition": 8097,
      "Ġenthus": 8098,
      "Ġannually": 8099,
      "Ġaggressive": 8100,
      "Ġpriest": 8101,
      "Ġmotivation": 8102,
      "Ġabsorb": 8103,
      "Ġthurs": 8104,
      "Ġqualities": 8105,
      "Ġtraditionally": 8106,
      "Ġwooden": 8107,
      "Ø§": 8108,
      "Ġpublishing": 8109,
      "Ġviral": 8110,
      "Ġhindu": 8111,
      "Ġsem": 8112,
      "plate": 8113,
      "Ġmeaningful": 8114,
      "Ġpor": 8115,
      "Ġlev": 8116,
      "Ġdoctrine": 8117,
      "Ġsuit": 8118,
      "Ġech": 8119,
      "Ġbarriers": 8120,
      "Ġaddresses": 8121,
      "Ġreproductive": 8122,
      "Ġcorresponding": 8123,
      "Ġhip": 8124,
      "erated": 8125,
      "lick": 8126,
      "Ġfunded": 8127,
      "eli": 8128,
      "02": 8129,
      "food": 8130,
      "eries": 8131,
      "thew": 8132,
      "Ġtranslated": 8133,
      "Ġneglect": 8134,
      "Ġutility": 8135,
      "Ġdynamics": 8136,
      "Ġweekly": 8137,
      "Ġherself": 8138,
      "inth": 8139,
      "Ġruled": 8140,
      "enced": 8141,
      "ipe": 8142,
      "Ġjackson": 8143,
      "Ġbottle": 8144,
      "etary": 8145,
      "Ġrecording": 8146,
      "Ġmagnitude": 8147,
      "Ġwolf": 8148,
      "Ġphones": 8149,
      "Ġdiffer": 8150,
      "ali": 8151,
      "omp": 8152,
      "Ġinvited": 8153,
      "rix": 8154,
      "copy": 8155,
      "ng": 8156,
      "Ġhabitats": 8157,
      "Ġincorporated": 8158,
      "63": 8159,
      "Ġshr": 8160,
      "Ġfemin": 8161,
      "Ġbishop": 8162,
      "Ġgodd": 8163,
      "Ġwednesday": 8164,
      "Ġkent": 8165,
      "Ġpod": 8166,
      "aws": 8167,
      "mental": 8168,
      "Ġbrid": 8169,
      "Ġwireless": 8170,
      ")||": 8171,
      "ouds": 8172,
      "Ġbru": 8173,
      "Ġdiagnostic": 8174,
      "Ġomega": 8175,
      "wered": 8176,
      "Ġrequirement": 8177,
      "Ġengineer": 8178,
      "disc": 8179,
      "zes": 8180,
      "Ġepa": 8181,
      "bean": 8182,
      "Ġputs": 8183,
      "Ġcollective": 8184,
      "Ġ(âĢľ": 8185,
      "Ġegyptian": 8186,
      "Ġcalendar": 8187,
      "acks": 8188,
      "Ġenerg": 8189,
      "Ġbasin": 8190,
      "oto": 8191,
      "Ġshoes": 8192,
      "Ġtelescope": 8193,
      "Ġtues": 8194,
      "ders": 8195,
      "Ġlew": 8196,
      "Ġdivide": 8197,
      "page": 8198,
      "Ġwake": 8199,
      "Ġending": 8200,
      "Ġthesis": 8201,
      "grade": 8202,
      "Ġimagination": 8203,
      "Ġpreserved": 8204,
      "phal": 8205,
      "Ġnur": 8206,
      "Ġreadily": 8207,
      "assium": 8208,
      "Ġreplacement": 8209,
      "Ġfan": 8210,
      "Ġelectrons": 8211,
      "Ġpunishment": 8212,
      "Ġdried": 8213,
      "Ġexhibition": 8214,
      "Ġariz": 8215,
      "je": 8216,
      "Ġinev": 8217,
      "Ġmississippi": 8218,
      "erness": 8219,
      "Ġtermin": 8220,
      "Ġpredicted": 8221,
      "Ġhandling": 8222,
      "Ġemerged": 8223,
      "amine": 8224,
      "Ġinvasive": 8225,
      "rose": 8226,
      "Ġadopt": 8227,
      "mus": 8228,
      "Ġsubsid": 8229,
      "Ġinvention": 8230,
      "Ġradi": 8231,
      "Ġancestors": 8232,
      "Ġdevelops": 8233,
      "Ġspeaker": 8234,
      "Ġconclusions": 8235,
      "bell": 8236,
      "Ġmature": 8237,
      "Ġclients": 8238,
      "Ġcaptain": 8239,
      "Ġlimitations": 8240,
      "Ġneurons": 8241,
      "Ġmerch": 8242,
      ")|": 8243,
      "quar": 8244,
      "Ġunity": 8245,
      "agen": 8246,
      "eping": 8247,
      "Ġtherapeut": 8248,
      "Ġtrump": 8249,
      "Ġentitled": 8250,
      "Ġ^": 8251,
      "Ġmile": 8252,
      "Ġspark": 8253,
      "Ġrooms": 8254,
      "Ġbreaks": 8255,
      "Ġconversion": 8256,
      "Ġarc": 8257,
      "rub": 8258,
      "Ġbuying": 8259,
      "zer": 8260,
      "Ġpupils": 8261,
      "Ġfles": 8262,
      "Ġcream": 8263,
      "Ġrecru": 8264,
      "figure": 8265,
      "04": 8266,
      "Ġbonds": 8267,
      "Ġak": 8268,
      "Ġdc": 8269,
      "Ġallergy": 8270,
      "Ġinvented": 8271,
      "ĠâĨĳ": 8272,
      "Ġmicrosoft": 8273,
      "Ġcontrary": 8274,
      "iry": 8275,
      "Ġsleeping": 8276,
      "plo": 8277,
      "alty": 8278,
      "Ġmurder": 8279,
      "Ġwhit": 8280,
      "Ġoutdoor": 8281,
      "pap": 8282,
      "Ġidentical": 8283,
      "Ġcorps": 8284,
      "Ġabandoned": 8285,
      "Ġrevers": 8286,
      "elly": 8287,
      "inking": 8288,
      "Ġinhabitants": 8289,
      "Ġmanus": 8290,
      "Ġsher": 8291,
      "Ġprescribed": 8292,
      "58": 8293,
      "Ġvisiting": 8294,
      "Ġportra": 8295,
      "Ġconstra": 8296,
      "Ġprofound": 8297,
      "Ġreturns": 8298,
      "Ġsoils": 8299,
      "Ġsail": 8300,
      "Ġenables": 8301,
      "Ġmah": 8302,
      "jan": 8303,
      "Ġvine": 8304,
      "Ġecology": 8305,
      "Ġprol": 8306,
      "Ġforever": 8307,
      "Ġpopularity": 8308,
      "Ġcigare": 8309,
      "Ġaccomplish": 8310,
      "Ġcomplexity": 8311,
      "amination": 8312,
      "Ġsuspect": 8313,
      "ught": 8314,
      "urrent": 8315,
      "Ġsacrifice": 8316,
      "oman": 8317,
      "Ġpainted": 8318,
      "Ġpert": 8319,
      "Ġdistant": 8320,
      "Ġhopes": 8321,
      "Ġregistered": 8322,
      "Ġpets": 8323,
      "wall": 8324,
      "Ġkin": 8325,
      "Ġreflected": 8326,
      "gent": 8327,
      "Ġloy": 8328,
      "Ġthursday": 8329,
      "uled": 8330,
      "98": 8331,
      "stit": 8332,
      "Ġseal": 8333,
      "Ġhealthier": 8334,
      "Ġnursing": 8335,
      "Ġvaried": 8336,
      "ji": 8337,
      "Ġneighb": 8338,
      "Ġkitchen": 8339,
      "Ġconsequently": 8340,
      "Ġcurrency": 8341,
      "Ġexcav": 8342,
      "Ġsessions": 8343,
      "Ġdimin": 8344,
      "Ġdevelopments": 8345,
      "Ġseparation": 8346,
      "Ã¤": 8347,
      "Ġcustomer": 8348,
      "section": 8349,
      "bury": 8350,
      "Ġconservative": 8351,
      "type": 8352,
      "Ġunn": 8353,
      "infl": 8354,
      "Ġimpair": 8355,
      "Ġavo": 8356,
      "Ġfavour": 8357,
      "56": 8358,
      "Ġpanc": 8359,
      "apor": 8360,
      "Ġethics": 8361,
      "Ġhitler": 8362,
      "Ġverse": 8363,
      "Ġhurt": 8364,
      "Ġpossibilities": 8365,
      "Ġbern": 8366,
      "worm": 8367,
      "Ġninet": 8368,
      "Ġpotassium": 8369,
      "Ġactively": 8370,
      "Ġcable": 8371,
      "Ġ120": 8372,
      "Ġsensory": 8373,
      "Ġcampus": 8374,
      "Ġalliance": 8375,
      "Ġfacilitate": 8376,
      "Ġminimal": 8377,
      "Ġburden": 8378,
      "Ġcaps": 8379,
      "Ġfraction": 8380,
      "Ġclassification": 8381,
      "holders": 8382,
      "Ġorthod": 8383,
      "**": 8384,
      "Ġsending": 8385,
      "Ġencouraging": 8386,
      "Ġrna": 8387,
      "Ġluther": 8388,
      "Ġdesk": 8389,
      "Ġwells": 8390,
      "Ġcomplement": 8391,
      "Ġmolecule": 8392,
      "Ġdisag": 8393,
      "Ġupdate": 8394,
      "Ġpier": 8395,
      "2010": 8396,
      "Ġcircular": 8397,
      "arsh": 8398,
      "Ġbroke": 8399,
      "Ġswelling": 8400,
      "Ġenzymes": 8401,
      "Ġmexican": 8402,
      "2011": 8403,
      "Ġbought": 8404,
      "rible": 8405,
      "neum": 8406,
      "Ġslide": 8407,
      "Ġdocumented": 8408,
      "Ġfascinating": 8409,
      "2012": 8410,
      "Ġfleet": 8411,
      "Ġappeal": 8412,
      "Ġclouds": 8413,
      "Ġoceans": 8414,
      "Ġrehab": 8415,
      "Ġdeer": 8416,
      "Ġattempted": 8417,
      "ois": 8418,
      "Ġcited": 8419,
      "Ġhttps": 8420,
      "Ġsanta": 8421,
      "Ġcoral": 8422,
      "enda": 8423,
      "Ġspatial": 8424,
      "inte": 8425,
      "Ġportug": 8426,
      "Ġworker": 8427,
      "Ġownership": 8428,
      "Ġtuesday": 8429,
      "zyme": 8430,
      "first": 8431,
      "Ġarizona": 8432,
      "Ġtends": 8433,
      "Ġmediter": 8434,
      "Ġcheese": 8435,
      "Ġelections": 8436,
      "specific": 8437,
      "Ġsurrounded": 8438,
      "Ġpi": 8439,
      "Ġhepat": 8440,
      "Ġadolescents": 8441,
      "Ġemit": 8442,
      "Ġpasses": 8443,
      "Ġhybrid": 8444,
      "Ġtape": 8445,
      "Ġrepet": 8446,
      "Ġpublications": 8447,
      "natural": 8448,
      "Ġthemes": 8449,
      "Ġtribe": 8450,
      "Ð¸": 8451,
      "Ġpas": 8452,
      "raine": 8453,
      "Ġmystery": 8454,
      "lind": 8455,
      "Ġburned": 8456,
      "chang": 8457,
      "Ġindirect": 8458,
      "Ġknee": 8459,
      "Ġgrey": 8460,
      "Ġbom": 8461,
      "issance": 8462,
      "Ġgenetics": 8463,
      "Ġproud": 8464,
      "Ġsurvived": 8465,
      "52": 8466,
      "Ġcompetitive": 8467,
      "Ġperfectly": 8468,
      "06": 8469,
      "Ġcopies": 8470,
      "ett": 8471,
      "idal": 8472,
      "Ġdisplayed": 8473,
      "adelph": 8474,
      "Ġneural": 8475,
      "Ġregime": 8476,
      "Ġsheets": 8477,
      "Ġreasoning": 8478,
      "Ġreinforce": 8479,
      "Ġfactory": 8480,
      "Ġmanuscript": 8481,
      "Ġtargeted": 8482,
      "Ġrevel": 8483,
      "Ġmeetings": 8484,
      "Ġensuring": 8485,
      "Ġbub": 8486,
      "iments": 8487,
      "friend": 8488,
      "Ġbeet": 8489,
      "Ġattributed": 8490,
      "Ġamino": 8491,
      "Ġincom": 8492,
      "Ġreflection": 8493,
      "Ġestablishing": 8494,
      "Ġpole": 8495,
      "Ġfingers": 8496,
      "note": 8497,
      "Ġfilms": 8498,
      "Ġmitig": 8499,
      "also": 8500,
      "Ġdoors": 8501,
      "Ġpersonnel": 8502,
      "Ġalumin": 8503,
      "Ġcollapse": 8504,
      "Ġanalyses": 8505,
      "Ġpenet": 8506,
      "Ġmetabolic": 8507,
      "Ġsilic": 8508,
      "bt": 8509,
      "Ġwilson": 8510,
      "Ġsomewhere": 8511,
      "Ġprogressive": 8512,
      "Ġgeography": 8513,
      "Ġcolored": 8514,
      "Ġpries": 8515,
      "Ġspecialized": 8516,
      "aug": 8517,
      "Ġrelate": 8518,
      "Ġpollut": 8519,
      "Ġcellular": 8520,
      "Ġestate": 8521,
      "Ġsediment": 8522,
      "wat": 8523,
      "Ġarise": 8524,
      "Ġorganisation": 8525,
      "urable": 8526,
      "fulness": 8527,
      "Ġsatisfact": 8528,
      "Ġpermit": 8529,
      "Ġallergies": 8530,
      "Ġinherent": 8531,
      "Ġneuros": 8532,
      "Ġlact": 8533,
      "Ġconflicts": 8534,
      "Ġprivacy": 8535,
      "Ġmediterranean": 8536,
      "Ġverte": 8537,
      "Ġtheoretical": 8538,
      "Ġantar": 8539,
      "Ġstreams": 8540,
      "Ġconfusion": 8541,
      "Ġcollections": 8542,
      "Ġprophe": 8543,
      "ghan": 8544,
      "Ġincent": 8545,
      "izers": 8546,
      "Ġcharl": 8547,
      "Ġah": 8548,
      "rav": 8549,
      "Ġdebr": 8550,
      "Ġbusy": 8551,
      "Ġcycl": 8552,
      "Ġfox": 8553,
      "Ġdying": 8554,
      "sters": 8555,
      "Ġconsuming": 8556,
      "otypes": 8557,
      "Ġ1000": 8558,
      "Ġsew": 8559,
      "Ġfluor": 8560,
      "Ġrevenue": 8561,
      "Ġpride": 8562,
      "human": 8563,
      "ashes": 8564,
      "Ġaddressing": 8565,
      "Ġdating": 8566,
      "mble": 8567,
      "adder": 8568,
      "Ġcourage": 8569,
      "Ġwool": 8570,
      "Ġmagic": 8571,
      "Ġsubsequently": 8572,
      "Ġabundant": 8573,
      "mail": 8574,
      "Ġdistinction": 8575,
      "Ġsummar": 8576,
      "Ġsurviv": 8577,
      "Ġhistorians": 8578,
      "Ġhide": 8579,
      "Ġabsorption": 8580,
      "Ġfitness": 8581,
      "Ġcalm": 8582,
      "Ġsuggestions": 8583,
      "rob": 8584,
      "asters": 8585,
      "Ġinterv": 8586,
      "Ġdistinguish": 8587,
      "Ġconsequence": 8588,
      "Ġperpet": 8589,
      "Ġrou": 8590,
      "Ġjon": 8591,
      "Ġromans": 8592,
      "irable": 8593,
      "Ġperf": 8594,
      "Ġhorizontal": 8595,
      "stra": 8596,
      "Ġlegit": 8597,
      "Ġnaval": 8598,
      "Ġillnesses": 8599,
      "aya": 8600,
      "Ġ1989": 8601,
      "Ġvarying": 8602,
      "Ġstrengthen": 8603,
      "grad": 8604,
      "Ġdiagram": 8605,
      "83": 8606,
      "icipal": 8607,
      "Ġerect": 8608,
      "Ġswimming": 8609,
      "Ġdiver": 8610,
      "Ġforecast": 8611,
      "Ġrailroad": 8612,
      "Ġepidem": 8613,
      "Ġalaska": 8614,
      "Ġabol": 8615,
      "Ġranges": 8616,
      "Ġcurve": 8617,
      "Ġpock": 8618,
      "chem": 8619,
      "inn": 8620,
      "Ġinfectious": 8621,
      "Ġenforcement": 8622,
      "Ġmodule": 8623,
      "Ġmini": 8624,
      "Ġalongside": 8625,
      "Ġlunch": 8626,
      ",'": 8627,
      "61": 8628,
      "jud": 8629,
      "esis": 8630,
      "Ġacceptable": 8631,
      "Ġcapabilities": 8632,
      "Î±": 8633,
      "Ġphd": 8634,
      "Ġdefault": 8635,
      "Ġcollaborative": 8636,
      "Ġentrance": 8637,
      "Ġjim": 8638,
      "Ġ250": 8639,
      "Ġbrush": 8640,
      "bow": 8641,
      "Ġimportantly": 8642,
      "sk": 8643,
      "Ġsuggesting": 8644,
      "acent": 8645,
      "Ġattor": 8646,
      "white": 8647,
      "Ġblacks": 8648,
      "Ġandrew": 8649,
      "Ġsurveys": 8650,
      "53": 8651,
      "Ġproducers": 8652,
      "Ġcrack": 8653,
      "cession": 8654,
      "Ġconsent": 8655,
      "Ġrevol": 8656,
      "orters": 8657,
      "Ġsimultaneously": 8658,
      "Ġsystematic": 8659,
      "Ġhob": 8660,
      "Ġray": 8661,
      "Ġelderly": 8662,
      "hu": 8663,
      "stud": 8664,
      "Ġresil": 8665,
      "Ġadaptation": 8666,
      "Ġpeers": 8667,
      "adelphia": 8668,
      "Ġgross": 8669,
      "Ġcycles": 8670,
      "Ġexclud": 8671,
      "Ġbiblical": 8672,
      "omatic": 8673,
      "Ġdiscl": 8674,
      "Ġlanding": 8675,
      "author": 8676,
      "Ġrus": 8677,
      "Ġworkshe": 8678,
      "Ġencl": 8679,
      "naissance": 8680,
      "Ġcombine": 8681,
      "anol": 8682,
      "Ġdramatically": 8683,
      "Ġark": 8684,
      "Ġtherm": 8685,
      "Ġcer": 8686,
      "azz": 8687,
      "Ġvag": 8688,
      "Ġirrigation": 8689,
      "Ġloud": 8690,
      "Ġproductive": 8691,
      "Ġinflation": 8692,
      "shaped": 8693,
      "Ġresemb": 8694,
      "Ġdelib": 8695,
      "Ġcarbohydrates": 8696,
      "62": 8697,
      "Ġpic": 8698,
      "Ġprolong": 8699,
      "Ġscales": 8700,
      "Ġmirror": 8701,
      "step": 8702,
      "Ġpartial": 8703,
      "aired": 8704,
      "Ġosc": 8705,
      "Ġphon": 8706,
      "Ġanalyzed": 8707,
      "Ġisolation": 8708,
      "spr": 8709,
      "Ġopens": 8710,
      "about": 8711,
      ",âĢĻ": 8712,
      "found": 8713,
      "Ġcandidates": 8714,
      "Ġvisits": 8715,
      "Ġdiets": 8716,
      "Ġpesticides": 8717,
      "Ġseverity": 8718,
      "isa": 8719,
      "Ġmillenn": 8720,
      "Ġeaten": 8721,
      "Ġelevated": 8722,
      "Ġhan": 8723,
      "Ġlegacy": 8724,
      "Ġsemi": 8725,
      "Ġvaries": 8726,
      "Ġmonthly": 8727,
      "these": 8728,
      "Ġlod": 8729,
      "instein": 8730,
      "Ġjones": 8731,
      "Ġcuts": 8732,
      "ometer": 8733,
      "Ġdescribing": 8734,
      "Ġinjured": 8735,
      "sized": 8736,
      "Ġmemories": 8737,
      "Ġhaw": 8738,
      "Ġperspectives": 8739,
      "Ġstabil": 8740,
      "Ġcad": 8741,
      "unc": 8742,
      "Ġmunicipal": 8743,
      "Ġsperm": 8744,
      "Ġstraw": 8745,
      "atus": 8746,
      "aved": 8747,
      "Ġmorph": 8748,
      "Ġ44": 8749,
      "Ġoils": 8750,
      "Ġstretch": 8751,
      "Ġvom": 8752,
      "Ġshoulder": 8753,
      "ador": 8754,
      "Ġbias": 8755,
      "Ġcelebration": 8756,
      "bage": 8757,
      "nedy": 8758,
      "Ġstruck": 8759,
      "ulture": 8760,
      "Ġshelter": 8761,
      "Ġgang": 8762,
      "Ġvector": 8763,
      "Ġofficially": 8764,
      "Ġencounter": 8765,
      "Ġcrimes": 8766,
      "Ġdebris": 8767,
      "Ġbarn": 8768,
      "Ġ(\"": 8769,
      "Ġmeditation": 8770,
      "Ġcrus": 8771,
      "economic": 8772,
      "oa": 8773,
      "Ġforgot": 8774,
      "Ġtoile": 8775,
      "Ġrainfall": 8776,
      "Ġcodes": 8777,
      "Ġrestricted": 8778,
      "Ġsubt": 8779,
      "Ġshortly": 8780,
      "olf": 8781,
      "Ġoverl": 8782,
      "Ġcontrad": 8783,
      "Ġrays": 8784,
      "Ġassault": 8785,
      "Ġquote": 8786,
      "Ġwilliams": 8787,
      "Ġattributes": 8788,
      "Ġdish": 8789,
      "Ġpackage": 8790,
      "Ġdw": 8791,
      "ethe": 8792,
      "Ġillustrated": 8793,
      "Ġva": 8794,
      "Ġpresidential": 8795,
      "81": 8796,
      "cor": 8797,
      "Ġselling": 8798,
      "Ġaccurately": 8799,
      "ouri": 8800,
      "Ġpartly": 8801,
      "Ġ49": 8802,
      "raid": 8803,
      "Ġtransferred": 8804,
      "Ġpipe": 8805,
      "Ġbuddh": 8806,
      "Ġunp": 8807,
      "Ġberlin": 8808,
      "commun": 8809,
      "Ġott": 8810,
      "Ġspine": 8811,
      "ml": 8812,
      "Ġmul": 8813,
      "ologic": 8814,
      "Ġpose": 8815,
      "Ġplates": 8816,
      "Ġvoting": 8817,
      "Ġrefugees": 8818,
      "Ġquantities": 8819,
      "Ġdisturb": 8820,
      "arth": 8821,
      "Ġreturning": 8822,
      "esium": 8823,
      "ource": 8824,
      "Ġdesignated": 8825,
      "Ġarrival": 8826,
      "Ġmuc": 8827,
      "Ġnurse": 8828,
      "Ġgaz": 8829,
      "Ġsket": 8830,
      "encing": 8831,
      "Ġnumer": 8832,
      "aust": 8833,
      "Ġtumors": 8834,
      "Ġsynthetic": 8835,
      "Ġaxis": 8836,
      "ructive": 8837,
      "Ġhunger": 8838,
      "Ġjava": 8839,
      "ogens": 8840,
      "high": 8841,
      "hips": 8842,
      "Ġobser": 8843,
      "Ġhypert": 8844,
      "Ġtendency": 8845,
      "pos": 8846,
      "Ġpleasure": 8847,
      "Ġkg": 8848,
      "Ġoptimal": 8849,
      "uan": 8850,
      "Ġborders": 8851,
      "Ġmilit": 8852,
      "Ġpalm": 8853,
      "Ġorientation": 8854,
      "Ġlibraries": 8855,
      "original": 8856,
      "ighth": 8857,
      "ether": 8858,
      "Ġresur": 8859,
      "Ġexpanding": 8860,
      "Ġatomic": 8861,
      "ĪĴ": 8862,
      "Ġattacked": 8863,
      "astern": 8864,
      "Ġ43": 8865,
      "Ġmapping": 8866,
      "Ġathletes": 8867,
      "54": 8868,
      "Ġintelligent": 8869,
      "Ġtough": 8870,
      "Ġinstances": 8871,
      "best": 8872,
      "Ġsegment": 8873,
      "iano": 8874,
      "Ġdepr": 8875,
      "Ġfifty": 8876,
      "Ġfoster": 8877,
      "Ġalternatives": 8878,
      "Ġdynasty": 8879,
      "reprene": 8880,
      "Ġdeposits": 8881,
      "Ġinitiatives": 8882,
      "Ġcertific": 8883,
      "Ġprecisely": 8884,
      "Ġrelating": 8885,
      "Ġspreading": 8886,
      "Ġintra": 8887,
      "Ġattractive": 8888,
      "iro": 8889,
      "Ġpercept": 8890,
      "84": 8891,
      "Ġemer": 8892,
      "2008": 8893,
      "exist": 8894,
      "Ġpyram": 8895,
      "Ġapps": 8896,
      "Ġfinance": 8897,
      "Ġintegr": 8898,
      "Ġwage": 8899,
      "Ġhistorically": 8900,
      "Ġloop": 8901,
      "Ġhook": 8902,
      "Ġarchives": 8903,
      "Ġlawn": 8904,
      "dl": 8905,
      "Ġintermedi": 8906,
      "Ġsocio": 8907,
      "regular": 8908,
      "terior": 8909,
      "play": 8910,
      "Ġallergic": 8911,
      "Ġpharmac": 8912,
      "good": 8913,
      "Ġpneum": 8914,
      "Ġride": 8915,
      "Ġ600": 8916,
      "Ġpredators": 8917,
      "Ġchannels": 8918,
      "Ġreflects": 8919,
      "82": 8920,
      "Ġdrives": 8921,
      "bul": 8922,
      "Ġstrains": 8923,
      "Ġassessments": 8924,
      "Ġduties": 8925,
      "Ġlean": 8926,
      "Ġaccidents": 8927,
      "Ġproposal": 8928,
      "Ġdialogue": 8929,
      "Ġrepublican": 8930,
      "Ġtransformation": 8931,
      "Ġmutations": 8932,
      "Ġrequiring": 8933,
      "Ġpredomin": 8934,
      "Ġorganis": 8935,
      "Ġbroadcast": 8936,
      "Ġphiladelphia": 8937,
      "Ġapplies": 8938,
      "Ġaccounting": 8939,
      "Ġmistakes": 8940,
      "Ġlikewise": 8941,
      "Ġskull": 8942,
      "Ġduke": 8943,
      "Ġgentle": 8944,
      "Ġchamp": 8945,
      "Ġcomparative": 8946,
      "Ġpdf": 8947,
      "Ġdoses": 8948,
      "ifer": 8949,
      "Ġcontributing": 8950,
      "Ġkennedy": 8951,
      "Ġcem": 8952,
      "Ġwritings": 8953,
      "Ġregulatory": 8954,
      "2009": 8955,
      "aine": 8956,
      "Ġdiamond": 8957,
      "healthy": 8958,
      "aware": 8959,
      "Ġinfin": 8960,
      "Ġhack": 8961,
      "Ġau": 8962,
      "Ġinfluenza": 8963,
      "auc": 8964,
      "ela": 8965,
      "Ġstriking": 8966,
      "Ġnurses": 8967,
      "Ġsq": 8968,
      "Ġbrook": 8969,
      "Ġcomparing": 8970,
      "Ġinsights": 8971,
      "loc": 8972,
      "Ġpest": 8973,
      "Ġcarib": 8974,
      "Ġbelt": 8975,
      "Ġportions": 8976,
      "Ġrailway": 8977,
      "ique": 8978,
      "Ġpartially": 8979,
      "Ġprovision": 8980,
      "Ġreservoir": 8981,
      "opl": 8982,
      "Ġprevents": 8983,
      "Ġreviewed": 8984,
      "Ġenhanced": 8985,
      "Ġbite": 8986,
      "Ġexpedition": 8987,
      "zi": 8988,
      "Ġworkplace": 8989,
      "Ġtolerance": 8990,
      "fly": 8991,
      "Ġforb": 8992,
      "Ġlift": 8993,
      "Ġplacing": 8994,
      "Ġcharges": 8995,
      "Ġpreservation": 8996,
      "Ġadministrative": 8997,
      "Ġsophistic": 8998,
      "opes": 8999,
      "ultural": 9000,
      "Ġcommunist": 9001,
      "Ġgermans": 9002,
      "Ġcoven": 9003,
      "Ġfounder": 9004,
      "Ġarchaeological": 9005,
      "Ġlig": 9006,
      "apes": 9007,
      "Ġhunt": 9008,
      "Ġvocal": 9009,
      "mers": 9010,
      "phe": 9011,
      "Ġexpertise": 9012,
      "oves": 9013,
      "Ġoffices": 9014,
      "Ġsamuel": 9015,
      "Ġentreprene": 9016,
      "Ġoppon": 9017,
      "Ġadoption": 9018,
      "Ġincorporate": 9019,
      "Ġabundance": 9020,
      "Ġbeam": 9021,
      "Ġnorthwest": 9022,
      "Ġloan": 9023,
      "Ġcontamination": 9024,
      "Ġspecified": 9025,
      "engers": 9026,
      "Ġcerv": 9027,
      "icial": 9028,
      "Ġforty": 9029,
      "Ġrebu": 9030,
      "Ġcontaminated": 9031,
      "Ġbin": 9032,
      "Ġdollar": 9033,
      "92": 9034,
      "ocial": 9035,
      "Ġgalaxy": 9036,
      "Ġglory": 9037,
      "Ġtourism": 9038,
      "Ġamazon": 9039,
      "Ġattended": 9040,
      "orus": 9041,
      "Ġorganism": 9042,
      "Ġeag": 9043,
      "text": 9044,
      "Ġinspiration": 9045,
      "Ġgastro": 9046,
      "Ġshade": 9047,
      "Ġprisoners": 9048,
      "td": 9049,
      "Ġorn": 9050,
      "yan": 9051,
      "athan": 9052,
      "Ġsoutheast": 9053,
      "Ġspacecraft": 9054,
      "Ġimmigration": 9055,
      "Ġgoddess": 9056,
      "Ã±": 9057,
      "Ġturk": 9058,
      "grow": 9059,
      "Ġhistorian": 9060,
      "acles": 9061,
      "Ġtherapeutic": 9062,
      "Ġrebell": 9063,
      "Ġtrading": 9064,
      "itzer": 9065,
      "Ġafraid": 9066,
      "==": 9067,
      "sub": 9068,
      "Ġstephen": 9069,
      "copic": 9070,
      "Ġprescription": 9071,
      "Ġresidential": 9072,
      "gm": 9073,
      "Ġimpressive": 9074,
      "Ġextinction": 9075,
      "Ġ`": 9076,
      "oline": 9077,
      "Ġbloom": 9078,
      "Ġavoiding": 9079,
      "Ġspeakers": 9080,
      "Ġgrams": 9081,
      "Â®": 9082,
      "Ġtay": 9083,
      "osaur": 9084,
      "Ġbarb": 9085,
      "Ġbrill": 9086,
      "Ġnether": 9087,
      "Ġchapters": 9088,
      "Ġni": 9089,
      "Ġflexibility": 9090,
      "Ġvolunt": 9091,
      "Ġswall": 9092,
      "kal": 9093,
      "Ġuv": 9094,
      "Ġoperated": 9095,
      "Ġbits": 9096,
      "Ġonset": 9097,
      "Ġoreg": 9098,
      "Ġminimize": 9099,
      "Ġbags": 9100,
      "isible": 9101,
      "sex": 9102,
      "Ġmanagers": 9103,
      "Ġsusceptible": 9104,
      "Ġcamps": 9105,
      "Ġenzyme": 9106,
      "Ġessence": 9107,
      "Ġfallen": 9108,
      "Ġplasma": 9109,
      "uce": 9110,
      "imen": 9111,
      "Ġsword": 9112,
      "\")": 9113,
      "Ġdischarge": 9114,
      "irm": 9115,
      "Ġeducated": 9116,
      "giene": 9117,
      "Ġstems": 9118,
      "iral": 9119,
      "pany": 9120,
      "Ġequations": 9121,
      "sch": 9122,
      "Ġdiarrhea": 9123,
      "Ġoregon": 9124,
      "bro": 9125,
      "olis": 9126,
      "Ġfeather": 9127,
      "51": 9128,
      "ordinary": 9129,
      "Ġconsisting": 9130,
      "enh": 9131,
      "Ġregulate": 9132,
      "Ġinstallation": 9133,
      "Ġconvey": 9134,
      "Ġoccupation": 9135,
      "Ġtoxins": 9136,
      "py": 9137,
      "govern": 9138,
      "Ġreson": 9139,
      "Ġerosion": 9140,
      "Ġdefeat": 9141,
      "Ġhardly": 9142,
[...]
